[PAD]
[UNK]
[CLS]
[SEP]
[MASK]
!
"
#
$
%
&
'
(
)
*
+
,
-
.
/
0
1
2
3
4
5
6
7
8
9
:
;
<
=
>
?
@
A
B
C
D
E
F
G
H
I
J
K
L
M
N
O
P
Q
R
S
T
U
V
W
X
Y
Z
[
\
]
^
_
`
a
b
c
d
e
f
g
h
i
j
k
l
m
n
o
p
q
r
s
t
u
v
w
x
y
z
{
|
}
~
¡
¢
£
¤
¥
¦
§
¨
©
ª
«
¬
®
¯
°
±
²
³
´
µ
¶
·
¸
¹
º
»
¼
½
¾
¿
Æ
Ð
×
Ø
Þ
ß
æ
ð
÷
ø
þ
Đ
đ
ı
Ł
ł
œ
ƒ
ǝ
ɐ
ɔ
ə
ɟ
ɥ
ɪ
ɯ
ɴ
ɹ
ʀ
ʇ
ʍ
ʎ
ʟ
ʻ
ʼ
ˆ
ˈ
˙
˚
˜
Α
Γ
Δ
Ε
Ι
Λ
Ξ
Σ
Ω
α
β
γ
δ
ε
η
ι
κ
λ
μ
ν
ο
π
ρ
ς
σ
τ
υ
ω
І
А
Б
В
Г
Д
Е
З
И
К
Л
М
Н
О
П
Р
С
Т
У
Ф
Х
Ш
Я
а
б
в
г
д
е
ж
з
и
к
л
м
н
о
п
р
с
т
у
ф
х
ц
ч
ш
щ
ъ
ы
ь
э
ю
я
є
ѕ
і
և
א
ב
ג
ד
ה
ו
ז
ח
ט
י
כ
ל
ם
מ
ן
נ
ס
ע
פ
צ
ק
ר
ש
ת
،
ء
ا
ب
ة
ت
ث
ج
ح
خ
د
ذ
ر
ز
س
ش
ص
ض
ط
ظ
ع
غ
ف
ق
ك
ل
م
ن
ه
و
ى
ي
پ
چ
ک
گ
ں
ہ
ی
ے
अ
आ
इ
ई
उ
ए
ऐ
ऑ
ओ
औ
क
ख
ग
घ
च
छ
ज
झ
ट
ठ
ड
ढ
ण
त
थ
द
ध
न
प
फ
ब
भ
म
य
र
ल
व
श
ष
स
ह
ा
ि
ी
ॉ
ो
ौ
।
র
া
ে
க
த
ம
ர
ா
ி
ு
ಗ
ಠ
ನ
ರ
ಲ
ವ
ಾ
ೕ
ก
ง
น
ม
ร
ว
อ
า
เ
ᄀ
ᄂ
ᄃ
ᄅ
ᄆ
ᄇ
ᄉ
ᄋ
ᄌ
ᄎ
ᄏ
ᄐ
ᄑ
ᄒ
ᅡ
ᅢ
ᅥ
ᅦ
ᅧ
ᅩ
ᅪ
ᅬ
ᅭ
ᅮ
ᅯ
ᅳ
ᅴ
ᅵ
ᆨ
ᆫ
ᆯ
ᆷ
ᆸ
ᆻ
ᆼ
ᴀ
ᴇ
‐
‑
‒
–
—
―
‘
’
‚
“
”
„
‟
†
‡
•
․
…
‰
′
″
‹
›
‼
‾
⁄
⁰
₂
₃
₤
₦
₧
₩
€
₹
⃣
℃
ℓ
™
ℹ
⅓
⅔
⅛
↑
→
↓
⇒
−
∙
√
∞
≥
⌐
Ⓜ
Ⓥ
─
│
├
┬
┳
┻
┼
║
╕
╗
╛
╜
╝
╣
╦
╱
╲
╳
█
░
▔
■
□
▪
▲
▶
►
▽
◆
◊
○
●
☀
☃
★
☆
☑
☔
☕
☘
☝
☟
☠
☭
☮
☹
☺
☼
☾
♀
♂
♛
♠
♡
♥
♦
♪
♫
♬
⚓
⚔
⚖
⚜
⚠
⚡
⚪
⚫
⚽
⚾
✅
✈
✊
✋
✌
✍
✒
✓
✔
✕
✖
✝
✨
✭
❄
❌
❗
❣
❤
➞
➡
➤
⠀
⤵
⬆
⬇
⬛
⭐
、
。
》
「
」
い
か
し
た
っ
て
な
に
の
は
ま
る
ア
イ
ク
シ
ス
ッ
ツ
ト
フ
ラ
ン
・
ー
ㅤ
一
三
上
下
不
世
个
中
为
主
之
乌
了
争
事
二
于
交
人
他
以
们
任
会
体
作
來
俄
信
克
全
公
兰
关
其
军
准
出
则
利
到
制
前
力
加
北
原
发
可
台
合
同
向
周
和
国
國
在
地
外
多
大
天
太
子
安
家
富
对
小
就
工
布
平
年
得
心
性
成
我
战
所
政
文
斯
新
方
日
时
明
是
會
月
有
本
机
权
来
标
森
檒
檓
檙
檚
檛
檝
次
正
武
民
汗
汤
法
洲
海
源
漏
火
然
王
生
由
的
社
空
突
立
站
等
罗
羅
美
習
聽
能
自
英
茅
行
表
西
要
谩
路
过
近
这
透
道
部
鈥
长
阿
题
ﬀ
ﬁ
ﬂ
！
（
）
，
：
？
＿
ﾠ
ﾩ
ￂ
ￃ
￡
￣
￼
￾
🇦
🇧
🇨
🇩
🇪
🇫
🇬
🇭
🇮
🇯
🇰
🇱
🇲
🇳
🇴
🇵
🇷
🇸
🇹
🇺
🇽
🌈
🌊
🌍
🌎
🌞
🌟
🌲
🌴
🌸
🌹
🌺
🌻
🍀
🍊
🍑
🍒
🍔
🍕
🍷
🍺
🍻
🍾
🎃
🎄
🎅
🎈
🎉
🎊
🎙
🎤
🎥
🎯
🎵
🎶
🎺
🎾
🏀
🏁
🏅
🏆
🏇
🏈
🏉
🏏
🏳
🏴
🏻
🏼
🏽
🏾
🏿
🐉
🐍
🐐
🐘
🐝
🐶
🐸
🐾
👀
👁
👅
👇
👉
👊
👋
👌
👍
👎
👏
👑
👨
👩
👶
👸
👻
👼
👽
💀
💁
💃
💅
💋
💍
💎
💔
💕
💖
💗
💘
💙
💚
💛
💜
💥
💦
💨
💩
💪
💫
💬
💯
💰
💻
📈
📚
📝
📰
📷
📸
📹
📺
🔊
🔑
🔘
🔥
🔫
🔴
🔵
🔹
🕊
🕺
🖕
🖤
🗣
🗽
😀
😁
😂
😃
😄
😅
😆
😇
😈
😉
😊
😋
😍
😎
😏
😐
😑
😒
😓
😔
😕
😘
😜
😝
😞
😡
😢
😤
😥
😩
😪
😫
😬
😭
😮
😰
😱
😲
😳
😶
😷
🙁
🙂
🙃
🙄
🙅
🙈
🙊
🙋
🙌
🙏
🚀
🚒
🚨
🤔
🤗
🤘
🤙
🤞
🤢
🤣
🤦
🤯
🤷
🥀
🥇
🦁
🦃
🦄
🦅
🦋
🧡
##r
##o
##p
##e
##t
##y
##P
##C
##s
##S
##c
##l
##a
##d
##A
##x
##H
##i
##h
##n
##G
##v
##T
##g
##j
##7
##4
##5
##8
##u
##2
##0
##1
##€
##F
##b
##9
##E
##R
##z
##w
##L
##M
##J
##B
##m
##f
##D
##N
##O
##I
##Y
##k
##W
##X
##3
##😡
##6
##K
##U
##V
##ח
##כ
##י
##ם
##Z
##Q
##⅓
##q
##®
##र
##ो
##प
##ी
##य
##🔥
##■
##├
##Γ
##¼
##¥
##™
##½
##©
##→
##♥
##ł
##🏻
##⃣
##а
##н
##о
##ट
##ل
##ي
##م
##ك
##ن
##❄
##´
##ज
##ि
##ए
##🇦
##🇮
##🇹
##œ
##ø
##ی
##ر
##ا
##¦
##聽
##£
##💥
##ರ
##ವ
##👻
##🚀
##📸
##त
##ा
##ध
##क
##鈥
##檚
##ß
##ι
##і
##и
##с
##ь
##к
##в
##ю
##░
##┼
##╕
##Æ
##┬
##╣
##❤
##✌
##🏼
##р
##д
##ж
##е
##⁄
##😎
##🎉
##₹
##¯
##श
##ल
##æ
##º
##ы
##щ
##可
##政
##在
##克
##的
##下
##一
##行
##व
##न
##б
##я
##з
##т
##л
##✒
##ᄒ
##ᅡ
##ᄋ
##ᅧ
##ᄆ
##ᆼ
##ᅴ
##ı
##ह
##►
##⅔
##👏
##🏽
##🏳
##🌈
##👨
##у
##स
##█
##ர
##க
##☀
##🦄
##ج
##ع
##ه
##ד
##פ
##س
##ة
##💅
##ч
##м
##²
##−
##ब
##国
##合
##权
##就
##د
##ￃ
##ﾩ
##●
##大
##发
##战
##争
##美
##♀
##斯
##向
##了
##★
##￾
##°
##✨
##💍
##シ
##ッ
##ク
##公
##不
##г
##ц
##भ
##ᅢ
##ᄂ
##ᆫ
##ᄉ
##ᅳ
##ᄐ
##ᅦ
##ᅵ
##є
##ℓ
##ت
##🚨
##♂
##😩
##阿
##富
##汗
##¹
##Ð
##द
##×
##ð
##➤
##ε
##ρ
##ο
##π
##δ
##х
##关
##于
##作
##🙏
##🏾
##ب
##ร
##อ
##ง
##ق
##ء
##▪
##च
##🎊
##ƒ
##¤
##ª
##⚫
##✓
##明
##و
##ز
##ش
##¬
##М
##ш
##🎥
##🌻
##🇺
##檛
##ᅮ
##Д
##🌹
##😂
##⭐
##🙈
##❌
##🏆
##⚪
##由
##國
##太
##空
##γ
##🤣
##ে
##র
##🇸
##🥇
##⚓
##ﾠ
##ﬀ
##Δ
##¾
##英
##🔴
##😔
##फ
##Ø
##¢
##年
##月
##日
##周
##三
##ح
##🤷
##🤦
##ᅩ
##ᆨ
##˜
##☭
##😕
##ᆻ
##ᆷ
##ᆯ
##⁰
##σ
##υ
##τ
##η
##κ
##ω
##ढ
##题
##家
##п
##站
##म
##😈
##⚡
##😉
##К
##╦
##ᅥ
##ᄇ
##ᄅ
##😊
##±
##🍺
##ф
##خ
##ॉ
##μ
##新
##來
##源
##ᅭ
##ᄃ
##人
##道
##主
##机
##部
##中
##💦
##👌
##╜
##🇨
##🇳
##🇬
##🇭
##💯
##₂
##ᄌ
##🇪
##ᄀ
##ᅪ
##¨
##आ
##⤵
##👑
##💃
##ア
##ラ
##イ
##の
##は
##ड
##ग
##ʼ
##以
##来
##次
##加
##😥
##✊
##🏈
##˚
##🍔
##🗣
##ᅯ
##✈
##💙
##⚽
##ג
##א
##等
##有
##🤔
##П
##❗
##λ
##ς
##ص
##─
##Đ
##🖕
##😄
##😭
##か
##מ
##ל
##đ
##⅛
##😳
##ذ
##ہ
##غ
##💪
##💀
##🙌
##ظ
##😘
##🤗
##😍
##☺
##🐝
##Ω
##✔
##¸
##ﬁ
##👀
##🎄
##ה
##ע
##✅
##🦁
##ま
##थ
##इ
##☕
##👍
##ב
##🏴
##💰
##二
##💕
##ש
##ˈ
##า
##ก
##ม
##♦
##ɪ
##ɴ
##ᴀ
##👸
##ʟ
##ى
##ط
##ख
##💋
##🌸
##🍊
##我
##和
##生
##ᄎ
##○
##В
##🔵
##ǝ
##ʇ
##ɔ
##ɹ
##צ
##ו
##茅
##ے
##檙
##📝
##🍷
##🌊
##火
##ष
##😅
##🇱
##ف
##🙊
##║
##🐸
##⠀
##Е
##З
##⬇
##🥀
##ר
##ת
##ɯ
##Б
##Р
##น
##ว
##💜
##ौ
##√
##ə
##α
##∞
##地
##信
##🕺
##😢
##🎶
##🎵
##💚
##为
##时
##✭
##🎅
##ई
##🇧
##⌐
##👋
##ओ
##ᄏ
##🎈
##🕊
##♡
##ᆸ
##外
##交
##🏅
##О
##У
##ʎ
##ン
##🤞
##🎙
##本
##事
##安
##÷
##Σ
##☃
##💎
##ㅤ
##✍
##🌟
##👊
##❣
##⚾
##民
##能
##个
##🖤
##社
##ण
##♠
##る
##🐉
##گ
##ث
##会
##🇷
##✝
##💔
##工
##路
##🏏
##Ł
##😱
##洲
##全
##要
##其
##军
##अ
##😝
##А
##Н
##И
##เ
##☑
##心
##ா
##ி
##😋
##们
##😜
##前
##台
##自
##ק
##💖
##☆
##这
##得
##😪
##📺
##🇲
##ɐ
##ں
##💗
##😬
##文
##￼
##🌞
##ض
##📚
##β
##ν
##力
##上
##立
##♪
##♫
##◊
##□
##天
##💛
##ᅬ
##ಲ
##ﬂ
##😮
##│
##ￂ
##海
##ス
##ー
##に
##て
##い
##🏀
##武
##突
##な
##🍕
##µ
##对
##🦋
##🦅
##🔊
##😁
##🙃
##⬛
##🍀
##🏿
##透
##ס
##成
##过
##制
##🌺
##छ
##同
##出
##长
##👎
##Ξ
##Т
##🏉
##😏
##👽
##方
##ト
##ן
##🌲
##ʻ
##Л
##平
##是
##然
##多
##标
##准
##乌
##兰
##北
##ک
##₧
##╛
##₃
##原
##性
##▶
##³
##╗
##🐘
##▽
##ठ
##🐶
##🧡
##📷
##🎯
##😇
##子
##☘
##所
##任
##🎃
##💨
##Г
##ಾ
##會
##🇯
##🤘
##💫
##🐐
##♬
##🍻
##👅
##Λ
##ז
##Ε
##Α
##利
##西
##俄
##罗
##ѕ
##↓
##Я
##झ
##🔫
##С
##⚠
##🔘
##😒
##✕
##▲
##پ
##ऐ
##法
##😰
##🙄
##😓
##👩
##💻
##フ
##😃
##þ
##👁
##之
##た
##し
##🙅
##🇫
##森
##נ
##🐾
##っ
##😤
##🍑
##🇵
##🎤
##谩
##🗽
##ɟ
##😷
##🤢
##☠
##💩
##ᄑ
##他
##℃
##🎾
##ט
##👉
##檝
##👇
##🌍
##🐍
##♛
##表
##🇰
##👼
##👶
##💁
##🙋
##🇩
##体
##🇴
##☹
##Ι
##ம
##ʀ
##￣
##📈
##⬆
##😆
##☾
##ɥ
##া
##🙂
##🏁
##🌴
##布
##ˆ
##⚜
##🎺
##उ
##世
##☮
##ᴇ
##😞
##چ
##🌎
##😀
##正
##✋
##Ⓜ
##到
##🤙
##🇽
##则
##ೕ
##ನ
##➡
##😶
##💬
##☼
##╝
##🚒
##ъ
##小
##💘
##🔑
##Х
##І
##⚔
##羅
##ு
##த
##◆
##Ⓥ
##э
##˙
##🤯
##😑
##￡
##☔
##✖
##📰
##घ
##檒
##ʍ
##🦃
##🍾
##ツ
##🍒
##☝
##ಗ
##🏇
##😐
##近
##Þ
##Ш
##╱
##╲
##⚖
##🔹
##王
##▔
##ಠ
##∙
##┻
##ℹ
##┳
##😲
##≥
##😫
##📹
##Ф
##☟
##↑
##檓
##₦
##औ
##🙁
##⇒
##習
##he
##er
##in
the
##on
##es
##at
##or
##en
##ed
##an
##ar
##ing
##nd
to
##al
##it
in
##ou
of
##is
##as
##re
##ic
and
th
##om
##ion
##il
##ent
##el
##id
##ec
##st
##et
##ay
##ot
##ut
on
##ur
##ac
##le
##ad
##ve
##ow
for
##am
##ol
##ig
##ly
be
that
is
##ter
##ir
st
re
##ver
pr
The
##im
wh
##us
##ts
##ith
##ation
##ill
##os
with
##ers
as
##ld
##ce
an
##op
at
al
was
##ain
##est
##ear
##em
con
##ch
sa
##ul
##ess
it
##her
fr
##ag
ha
##ak
he
##and
com
##um
said
##th
##ew
##igh
##pp
##ri
##od
by
##ate
##oc
are
has
##our
##ore
from
have
ex
##un
sh
his
we
##ould
##ity
##ect
##ort
##ment
de
ch
##iv
##ab
not
##ies
##ct
##se
su
##ast
##ist
se
##ack
##all
##if
##ive
20
##ust
##ia
##art
pl
##ian
tr
##ok
le
##oun
##ud
ab
##ard
will
or
##ost
go
##ial
##ap
##out
##ight
##gh
sp
wor
year
##end
this
##ant
who
##ich
##ere
##ell
##ome
##rou
ag
##ep
their
##ong
whe
but
out
pro
they
##ge
##ions
off
up
##ff
ad
Th
St
cl
##ice
been
In
##ber
##ik
##fter
##ue
en
un
##day
had
##ous
##ie
you
##ra
more
all
##ary
##cc
ne
##ub
##pl
##ans
##ry
res
which
Ch
##ime
##ine
its
##ther
were
##ure
about
##ally
##ord
##ro
##mer
##ence
##uss
##ame
##ide
##ated
201
per
It
##one
##own
rec
can
after
inc
do
int
im
over
would
cont
##av
##ign
##age
##ip
##ake
##ace
one
her
pe
##so
new
##ose
##og
##oll
##ook
me
##ks
cr
##ond
##ays
##ely
tw
##qu
##ount
rep
fir
also
##act
##ople
##ile
##ire
##ations
man
ar
dis
Russ
##ass
##ail
##ident
##uc
comp
##ict
##ind
##ven
than
exp
##ark
sc
##ite
people
##pt
so
##ish
##00
##ob
she
He
##ov
part
##ens
##ance
##ib
lik
##iz
Br
##ree
qu
when
app
##ick
us
acc
##ors
##oss
##are
first
other
##ress
pol
time
##oin
##ade
We
##ound
bec
inter
##ning
##able
##orm
##reat
##hed
play
two
##ical
##ough
there
##ru
##ach
##ek
into
##ory
##amp
##use
##ubl
##ents
##aw
again
some
##anc
rel
Tr
att
inv
just
last
work
##ition
##ild
pre
imp
But
##ase
them
sec
##ates
##ump
could
what
co
dec
##res
##oy
##itt
act
##man
##ult
kn
##rain
te
##ang
##ational
##old
back
##ood
##nder
Fr
##ey
Un
Al
any
##vern
count
##enc
get
##ious
##lud
like
ser
no
##ings
##iss
##ons
him
bl
Wh
##ink
##ove
years
19
our
##ock
br
if
gr
##fer
am
comm
##land
##und
New
As
##urn
##ause
op
includ
add
fin
##iver
bet
Re
##ublic
ever
under
against
supp
##als
mon
##vernment
ind
lead
##krain
hel
##ft
now
most
##ope
##hing
##form
##ues
pres
##rough
##illion
##ited
##ince
Ukrain
show
##arg
##round
##we
how
##uring
##fore
cons
only
##ery
call
An
week
##ton
Trump
my
##wn
##ement
##ise
world
And
##vel
Russia
##ied
##other
des
##ities
rem
government
el
##ater
def
##aking
##ason
##ters
did
em
war
fl
min
say
reg
##ets
being
down
##uch
##ating
before
fe
##up
##ath
end
##ank
##ier
wr
report
str
your
This
##ward
Le
Mar
offic
##hn
##ected
ev
ear
##ty
month
need
because
##meric
win
##ting
Americ
##iew
##ased
ac
##cent
##air
made
told
##ful
team
On
where
##oot
look
three
##son
even
##ix
make
long
##ved
Ar
ass
##tern
10
##ife
##orn
while
through
##ual
##hen
many
Sp
ter
##con
bel
##ool
wom
every
##roup
Ukraine
##ower
##orts
poin
sur
##ily
should
compan
200
##eb
##ull
med
since
##ics
cent
Sh
##les
##ists
##elf
##hip
000
percent
##xt
says
day
bu
own
want
conf
##ram
Eur
ret
##ouse
US
##rib
help
fam
may
country
ph
##ert
well
Russian
##urr
know
resp
law
those
##ange
##gan
way
##ures
##ork
Brit
##irect
##ices
during
high
car
##ection
##lin
see
old
very
set
invest
take
##ording
##ah
En
##ving
sign
##oth
##az
##ween
##gg
##ady
##atch
ve
think
Pres
##ollow
##io
start
ins
Is
##ames
##ina
don
mark
ann
##erson
between
Jo
##ont
mem
##ash
stud
##ision
##imes
##au
such
##led
##ern
##lear
run
much
##ently
prod
##ms
still
Europe
President
##iel
##ble
four
##ote
group
big
##ced
including
then
ro
cour
child
##ather
##med
##alk
second
##ister
contin
going
##eral
sl
##ral
##ible
##alth
##ann
stat
They
par
public
##ative
##hes
##ee
good
##pr
million
##ered
##conom
mil
##its
support
game
head
##ric
disc
found
official
##uct
##urs
dif
##ular
eff
##ives
##way
sm
direct
fil
##ale
##ants
season
prot
##ever
##ave
Pr
around
cap
Com
gu
right
##ott
these
##ility
##uth
##ret
##ments
prov
president
polit
follow
##aj
news
For
##ised
gen
##ren
##ital
does
##yst
##ex
##aim
Ind
##ying
##ands
##ves
##ism
camp
contr
home
##ific
There
##ax
leg
state
##olog
##ling
##ner
She
##att
United
econom
##iness
Rep
##ef
##ged
bus
num
##chool
##ivers
det
next
iss
##ency
gl
That
though
ext
sub
attack
conc
Bl
##ug
##outh
women
##ages
##ution
##over
##ights
dem
bo
##min
open
Sc
former
opp
##gy
Mon
##per
##ries
##omet
id
hear
If
##atur
both
put
top
##bers
dr
##rem
rele
far
At
##ield
##rat
##red
belie
##ces
happ
great
Ph
trans
pass
life
ref
##eep
claim
best
##els
Mr
spec
dep
called
##view
real
##ration
del
company
spe
art
##ense
soc
near
adv
air
##ior
inf
prop
##iam
##used
##nes
##orth
mov
##eng
incre
##ually
##ars
##ins
milit
##ember
another
12
Ad
##ury
same
left
You
intern
care
prog
##osed
person
##get
deal
post
##iday
##ird
compl
ob
##line
Mc
plan
##enn
according
kill
John
use
##akes
##iting
##der
##ajor
Chr
##ience
##ev
##ines
curr
May
tri
##ama
Eng
##iet
come
prev
##itter
meet
power
##The
Tw
announ
bre
school
##ecut
How
loc
expl
11
##app
inst
ask
police
##ished
UK
##ody
##velop
pay
business
ris
##aign
ed
15
find
exper
##urity
remain
won
##uck
place
five
move
char
##ys
appear
##ted
##ians
##ention
##ald
##ared
American
che
too
hum
##ll
Min
serv
prom
grow
##alf
here
##uthor
##oung
vis
really
##ept
prof
cond
rest
major
##rap
Don
campaign
commun
somet
##vers
health
media
##ute
Car
family
es
sim
differ
added
beh
night
children
fac
few
##ley
##erv
##ness
market
##ague
Af
##ially
used
past
Be
##ondon
poss
reported
##ystem
quest
Cl
days
cre
##ready
##iving
Ob
##ief
record
book
turn
##cept
pop
clear
##ross
allow
Man
never
miss
##reen
London
Wor
press
##ject
number
##ER
Aust
pos
already
polic
hand
develop
fact
30
##oney
sex
Monday
city
##ued
House
red
##ects
##BC
Dem
got
military
##iol
##augh
deb
hist
##uesday
##ately
##aff
oper
##ering
Friday
Tuesday
statement
came
took
##ically
##ony
##ham
Wed
##ending
##ient
dri
##ph
let
China
Go
##ursday
spok
six
##earch
Thursday
star
##side
York
hard
So
keep
vict
##ittle
crit
import
No
##ourn
film
system
Am
requ
Dav
col
mar
Sund
##nesday
##ocrat
change
##ball
lot
manag
##ends
Comm
Wednesday
Ir
rece
months
##ained
might
World
sever
without
aff
met
stand
investig
political
British
case
Republic
seem
author
European
##ploy
##ech
young
job
Ger
##ested
today
av
Can
coll
national
main
##til
read
build
##opp
##osp
mod
cost
Jan
fund
Sunday
##eg
foot
based
Bar
##thing
##ides
less
##ized
##row
partic
##uters
South
##ests
half
countries
##ards
death
level
##ided
away
sk
vide
final
##ured
point
##ison
18
##less
##ones
##ned
##ike
##ruct
est
##aken
free
seen
viol
dist
##iversity
##obal
##by
##ising
organ
later
Pol
What
cut
When
hour
program
across
All
##ional
men
making
sit
third
##aun
better
fri
ent
join
proble
##acy
ant
vot
##aid
return
##arter
something
##lier
recent
produc
inform
##ched
##ize
##hest
Co
party
13
##iven
court
March
little
cor
perform
West
feel
##par
saying
##ush
list
threat
Sy
States
##ways
##ccess
early
consid
proc
##leg
##ober
members
##AT
points
Austral
##une
##ata
##inal
human
officials
Har
14
didn
least
##ops
One
##utin
social
sent
##ales
Gu
decision
story
sing
each
things
Ass
Sec
whether
Christ
fail
leaders
##imate
Col
exc
international
State
##ened
##ably
likely
##ON
among
Or
strong
##eal
Democrat
25
fut
16
security
appro
News
eas
tax
England
view
##echn
full
hit
##self
ago
##ashing
become
billion
hold
##atter
doc
##ergy
##ror
sw
##ple
short
##uge
2016
money
until
must
##ron
concern
Sen
mus
North
##ended
Ab
##ipp
line
Obama
##ived
With
##ium
##aturday
##ories
sum
##ett
##iously
EU
Par
hig
##idence
Con
larg
Reuters
##ored
Ed
Saturday
German
##ox
##ases
##book
along
City
##hel
ra
fight
indust
2017
working
expected
trad
##ired
oil
talk
sol
chang
Feb
agre
fur
Se
coun
##ograp
inj
Britain
##IN
event
quarter
##ger
went
success
##rew
mid
face
different
important
following
##ead
##ator
##road
rul
pot
form
##oci
ll
invol
Pl
players
Im
##ertain
class
##gin
##yp
announced
##ference
having
video
series
##head
times
##ission
elect
Fl
17
##ten
War
side
##artment
known
##tain
local
Putin
##ances
##20
global
##usp
small
several
##ature
fall
why
phot
##ences
activ
##bs
##ential
##ream
director
give
sugg
##pite
ca
mom
199
##ane
##ots
National
always
stri
Afric
##my
dra
##wards
##ene
Ex
policy
##ified
##ology
tell
saf
##irl
future
El
##co
host
games
election
taken
##ench
compet
##ats
Will
food
equ
priv
led
##crib
Twitter
##uly
After
2018
White
##be
Ge
asked
able
##here
po
taking
targ
rights
Cent
data
close
financ
susp
techn
##eign
##ival
ban
##hers
##eks
club
##ortun
##ashington
Gr
50
yet
tal
##ivil
##ensive
infl
low
further
ide
Washington
laun
While
behind
cover
##iter
David
information
##lex
enough
Canad
history
##minist
24
companies
##most
##ai
However
##ption
Dec
##ively
complet
weeks
given
##ming
##omin
meeting
##rael
comes
##aul
san
##OR
Face
pat
bill
##eleb
100
mor
##af
Israel
publ
Apr
##ecutive
##ne
##utes
product
process
killed
##ring
##ederal
chall
##reet
##hern
question
To
##com
America
Mich
##mp
##uel
held
##back
foc
earlier
##itions
Donald
##stand
##port
bas
interview
##aps
##ke
##ented
##cil
doesn
economic
##ky
Just
Intern
special
reve
##aster
interest
due
chief
Facebook
Minister
##retary
val
lost
##sel
mean
neg
sanct
bar
live
discuss
##atest
##ds
##alif
vote
Cr
design
late
net
const
order
Sw
##inc
released
energy
shar
##ality
gener
April
role
believe
##urch
employ
continue
21
break
##eter
##ES
leader
##uary
##vert
##elt
once
2014
June
water
bring
##itted
den
University
dou
sour
cris
result
##uation
action
League
relations
control
arr
spokes
trav
thing
often
wrote
issue
attem
round
##uce
##iber
toget
De
##oon
together
looking
##fic
dev
Mus
##que
prices
Cup
coming
forces
##ney
music
Dep
##ampions
##aud
test
possible
Sept
##let
Inst
eng
tit
Mos
##ograph
fig
almost
love
civil
arg
trying
celeb
played
getting
##ler
##aged
kind
##oke
black
ball
fans
train
fav
Phot
##ims
others
2015
latest
##AR
thought
##ators
##uff
using
woman
sen
Gl
financial
Bre
doing
Me
ur
cou
Ste
Oct
coach
journ
bank
##ael
foreign
##rug
charg
done
within
Syri
His
##por
land
name
##ades
repres
##itor
##AN
##ender
##itive
hom
##ried
mess
community
administ
key
risk
##asing
##ners
##though
imm
trade
TV
jud
##atic
##orters
confir
office
##ck
industry
fell
enter
fire
plans
Iran
##gest
started
mass
house
January
reports
Pro
emer
Geor
course
dead
suff
certain
occ
##rict
share
##arge
effect
minister
##ulation
watch
My
hours
##ressed
Acc
describ
crisis
##order
##ape
##estern
access
economy
ap
##ung
di
##yn
front
##amed
loss
Ang
reveal
step
Res
students
Read
Get
outside
anal
##aper
##ruary
tot
conv
confl
lear
particular
82
July
Dr
February
cho
Pal
##ening
BBC
##iety
target
Kore
lim
term
##sh
Pe
service
2012
##ains
##ittee
Ukrainian
##osing
##ults
gas
##ession
Aug
hope
##iff
##aker
Lab
cust
ahead
Med
##ither
match
recently
##ails
##AS
div
##ilar
##asion
biggest
lo
visit
##lish
nation
expect
girl
sanctions
##rop
area
##work
poll
##icle
##iron
current
##omb
##aced
ident
Sm
Em
##istan
hop
sure
RE
##lam
treat
India
stop
non
legal
fear
means
impro
##akers
began
40
By
##aur
shows
seven
##ows
meas
fre
anti
James
reb
##amer
cult
terror
repl
pick
makes
cand
env
22
##epend
sold
##down
stay
fun
Cour
ground
forward
ben
capital
TH
##itional
##isc
Sup
shoot
Off
Some
online
##uclear
202
enc
##medi
##unt
App
staff
growth
sn
nearly
Gen
issues
twe
##elling
##for
demand
pract
##cow
emb
bad
adm
##dle
comment
##selves
##int
whose
shot
23
dest
large
famil
##ches
Not
opportun
price
##ees
moment
respons
Australia
problem
study
##IS
signific
Mor
##ental
##ironment
critic
wanted
services
aw
wa
celebr
Mark
broad
##ibility
2013
pict
benef
creat
Pat
football
orig
##ift
charac
goal
Cor
leave
deliver
Hol
##0s
deep
account
##ps
##ids
##ging
consum
Moscow
quick
himself
body
conflict
##mber
experience
playing
drug
position
docum
##go
##ability
##ana
administration
include
##den
evidence
bit
higher
career
##read
impact
France
According
federal
##enal
minutes
groups
Cong
super
##off
states
rac
eight
##ficult
research
##ovember
French
running
##ination
Republican
despite
Michael
aut
actually
har
saw
hot
##me
difficult
UN
November
arri
##iers
morning
immedi
Court
Ag
executive
player
Now
aver
seek
##irc
candid
avail
died
nuclear
investigation
##iod
Paul
##ization
##ude
tel
##onse
##ivid
member
release
init
white
##ached
##aving
##lement
pain
age
dam
try
##apan
review
general
##rod
##pec
##rugg
Part
mother
Mo
##attle
September
Ital
attempt
Black
Clin
begin
##itting
refer
significant
boy
isn
increase
prob
##ece
room
##ault
respond
##ford
understand
William
##ij
##yl
##iding
situation
climate
potential
##ined
##EN
field
became
##field
reason
December
##urk
Department
educ
doll
needs
travel
mult
International
Japan
##uty
response
##itch
##lo
198
Associ
##ogn
typ
cred
region
##oph
rather
summer
gun
AP
##anned
##lymp
##opped
weap
##ract
track
claims
Bel
project
custom
##liam
conference
##tt
talks
27
race
##ural
##ico
##wood
Olymp
however
##rought
Ever
Calif
Ham
##umb
##sc
##ester
October
##ule
strate
thous
protect
surpr
focus
friends
similar
Union
provide
##raz
border
Her
##liament
##inese
ste
largest
Act
alle
##ites
published
ey
aud
Germany
deter
single
leading
28
period
##sw
reach
violence
lives
nothing
Sch
showed
soon
sexual
More
##quo
idea
private
rev
building
relationship
Hill
vol
pressure
##rid
Per
comb
sect
Ro
26
Chinese
received
light
cann
self
strugg
rate
available
below
##anger
clos
##atives
peace
##pecially
webs
journal
heart
manager
Red
August
tour
canc
Char
ens
Ear
laws
##oti
heav
McC
##lus
victory
winning
Air
tem
chance
gave
workers
Islam
offer
##eth
##yle
individ
friend
attacks
hosp
Clinton
Jack
force
hon
port
independ
ple
##aily
anything
Angel
##oring
wants
##ET
oppos
buy
town
##fully
senior
mind
vers
popular
var
abs
Ser
matter
##FL
personal
Ira
chair
total
##oud
##ster
invasion
Phil
especially
##ises
##itiz
beat
Net
Times
##ify
walk
Iraq
2011
tro
These
Brown
Ne
##ogle
##oyal
San
environment
##gn
##ode
involved
##ought
needed
##ING
authorities
Park
pred
##hold
lab
##amb
##olution
themselves
Brex
ord
Tex
opt
movie
mag
site
entire
rise
accused
##ider
colle
unc
Congress
Count
##yc
alleged
Bank
living
##ocked
accept
everything
seems
##igr
parents
insp
currently
fem
##ask
rad
##berg
##ample
road
squ
someone
via
wind
wasn
##aging
##isl
##ety
East
address
board
extrem
stage
performance
Senate
##gress
##oman
Coun
##hester
Getty
Americans
##ecess
##uit
turned
wrong
Thom
Labour
weekend
##idents
everyone
mur
areas
##ellig
Last
##ients
conn
recogn
prison
father
Brexit
##esh
tweet
Scott
Dan
thousands
sales
huge
##hood
##ply
Californ
Google
Gre
teams
negoti
##irst
##aces
Guard
longer
##istic
title
growing
##ribut
Tom
##UT
revealed
##ighb
##cement
##iant
represent
##ocks
song
Mart
Fox
efforts
##ya
Africa
brought
##ym
##ams
Canada
average
##raft
whole
King
Prime
##aughter
Des
previous
son
Rober
Mad
alleg
ep
lower
##ounds
pros
##ilt
##ese
probably
profess
2010
serious
California
results
500
Ben
consider
increasing
events
##ips
##AL
couple
Bo
troops
pull
Mal
29
comments
Alex
agency
separ
remains
production
speech
space
Kh
Rich
##omm
present
##emy
##asons
pret
##oved
contract
##undred
mot
claimed
Here
##vey
##ris
Te
##ores
worth
##mit
continued
wife
##urning
Day
failed
£1
citiz
Turk
##uk
development
ill
MP
##hile
neighb
phone
##IC
problems
Johnson
circ
##atures
technology
##ampionship
##ills
Green
NFL
##ston
stra
##yan
##now
either
##rit
answ
proper
cannot
Musl
website
Indian
Fin
doub
confirmed
##cast
##irt
questions
##joy
cases
appl
##itution
worked
scient
lack
esc
firm
challen
##oming
concerns
assist
spokesman
Ber
##chie
bud
Cons
197
spent
example
Smith
##onst
##oid
pack
Manc
dig
##istry
mat
continues
Mex
##iction
itself
Do
Western
##ida
mis
cross
link
above
Council
touch
Images
##ED
George
described
fourth
##orney
presidential
##urg
Street
central
forced
influ
##arian
decided
Flor
respect
create
exist
inside
disapp
pic
helped
##vertis
weapons
dram
paid
families
35
##urt
Of
terms
legisl
##alt
poor
anyone
Arab
##oo
##uing
CN
opportunity
##ugh
draw
##esterday
Syria
Franc
refuge
31
Gold
Democrats
##IT
##elligence
quite
People
##ille
opening
included
pi
Korea
Mid
##iden
Police
changes
decl
allowed
agreement
takes
##come
Press
estab
warned
appeared
extra
Je
Democratic
enjoy
##oint
Secretary
gold
##ications
words
THE
##eck
calls
markets
##itten
wear
letter
Even
##igration
##ma
suggest
happened
amb
mater
##imin
works
##ament
##ERS
vo
character
##rupt
Manchester
##eed
tre
heard
defense
##oul
hospital
##imb
felt
previously
nine
##orthern
##val
##EO
achie
##ena
##ilities
surv
true
strik
content
##ges
IS
message
hol
capt
anim
safety
##erc
Rob
Sim
Star
hands
##ease
carry
##uses
##icated
Prem
agreed
##ona
signed
phys
hor
##ghan
costs
training
crow
Photo
danger
Su
##plom
Our
ready
speak
sett
##ara
##atural
Jones
sense
introd
pun
majority
60
##irth
##ements
source
##room
##ino
##ishing
##eated
pers
Cont
instead
recover
looks
hundred
unl
particularly
adding
Texas
although
created
Mil
schools
effort
##mark
##anks
##ny
jobs
##ander
General
Pict
##haps
Ky
##enced
particip
##lad
launched
slow
##ze
rates
##gr
launch
NAT
relig
Matt
rules
Mac
mill
sat
##erve
cle
##ceed
##itz
cause
##while
hous
##ication
progress
##ully
simply
ways
##urb
disp
histor
Biden
tried
2008
African
calling
discover
sel
##ension
education
##tor
Bill
##uced
named
Cap
opposition
##sea
coal
##raw
##atory
##any
Post
##icted
immediately
##nings
##angu
##ervative
regul
estim
details
##aught
conduct
##bum
giving
##eration
Qu
stock
sched
##band
##rovers
common
prim
regular
sell
unf
medical
diplom
##jects
##In
##reland
lawy
Chris
debate
decades
quickly
search
improve
users
Apple
##iminal
network
##rief
##using
##lines
telev
Republicans
sil
##fect
fair
fighting
charges
##light
screen
spending
Paris
##itness
attention
rock
Tod
pan
39
levels
spot
prem
Ireland
league
scored
County
bomb
##oor
##eat
range
Jer
goes
Scot
##ique
##aut
counter
victims
##mar
veh
straight
Los
ended
sector
NATO
il
English
Mic
##AC
ren
nov
##pped
##inks
##of
prep
2009
approach
posted
##iance
Soc
##lt
cal
citizens
happen
##vertisement
followed
##ki
Australian
##hib
raised
Def
regard
##ective
react
##orter
starting
Every
##chers
check
controvers
##ength
cast
Guardian
prime
award
block
officers
highest
protest
stories
##ago
First
aim
##OT
leaving
Pak
mob
##estival
parliament
eur
lif
challeng
article
shooting
cities
2022
challenge
##aded
yesterday
Party
trial
##sequ
##ruction
dom
prevent
demonst
propos
looked
Many
necess
kids
displ
prior
Sam
##aves
voters
##ding
Florida
rout
##OP
und
illeg
twitter
bab
Group
pus
numbers
##isation
reform
##encies
Two
shares
secretary
movement
includes
encour
figures
Jew
born
related
moved
Sun
45
partners
annual
album
material
##imir
AF
##edy
yards
##arr
towards
blood
##edom
pretty
##OS
##ibly
thr
Center
##ounts
Op
Williams
Kim
##ladimir
Angeles
Robert
products
analyst
Super
associ
investors
From
budget
amount
caused
injury
minute
##body
##estic
Pakistan
norm
reached
crime
##iled
increased
Bow
##na
goals
##astic
battle
favor
Bay
fast
else
##elled
female
date
Lib
wond
sle
murder
rank
##iple
##BI
196
happy
##iles
##fl
green
teac
committee
daughter
investment
##omen
##itute
specific
Joe
original
experi
Sand
Saud
page
##bo
##ID
##reg
officer
safe
##ica
langu
wel
##roy
Val
##AD
gone
century
box
Holly
base
easy
value
Commission
##gency
##opping
##illed
charge
##yr
assault
##outhern
books
appeal
Vladimir
stre
population
obs
##makers
CNN
kick
##iger
##icles
birth
conditions
allegations
ensure
intelligence
culture
##isions
photo
Step
arrested
##ashion
##asc
##IL
exact
Afghan
##mas
##emb
##ari
grand
email
Chel
brand
abuse
##sy
jump
reven
knew
Pet
measures
##acts
considered
cat
Wall
Pri
##jected
##EC
newsp
positive
##oes
bey
##adium
Braz
reporters
convers
talking
Other
##ordin
supply
compared
##aries
beyond
##een
##ression
moving
perfect
natural
defin
bi
plat
Che
##icket
incident
Carol
Big
customers
cop
##ban
commit
student
joined
Que
trust
##airs
document
practice
pur
passed
##ole
Port
appar
Security
funding
##lined
shut
banks
##ipped
##izing
Since
hus
Fed
treatment
htt
avoid
believed
##lands
debt
crowd
Premier
bid
behav
Fore
TO
##pool
spoke
issued
written
shared
judge
##anch
nomin
champ
##aining
Camer
north
Office
##uction
index
rap
Wil
ton
Scotland
sens
##wide
##ein
rose
Law
version
Ev
bott
##urd
Association
fly
throughout
Rel
television
##dquo
figure
worst
ability
certainly
criminal
competition
wall
Lou
##ously
##ples
Play
Brazil
Peter
School
favour
2019
brief
##ume
fuel
brother
Far
sound
Most
##iation
refl
gets
High
Miss
Sal
Francis
spread
amid
modern
hundreds
offered
boost
actions
changed
word
finally
dollar
wild
##US
Bush
Saudi
tack
##arily
boss
Richard
scene
Government
opened
Jos
##entially
homes
dism
Jon
candidate
aid
Up
alone
##isters
roll
centre
##emic
resear
##ructure
wide
##fort
Canadian
##rel
choice
Serv
politics
Mer
Art
##uf
##ires
inn
politic
style
##BA
Hollywood
upd
Justice
##change
built
##zz
prosecut
Mike
##reme
heavy
Martin
Vir
Committee
ess
##ortion
##pts
Mexico
##going
band
##add
Palest
wat
CEO
experts
promot
penal
middle
##ancy
Del
vac
double
denied
Cle
##rect
Today
Italy
appears
Over
gather
noted
paper
##to
independent
##ological
contact
##utions
Foreign
operation
domin
##asts
rising
parties
Gar
Christmas
credit
gay
quality
##igrants
parts
fresh
husband
##unk
##aches
govern
arch
Lu
leadership
Health
require
mix
attract
##riage
Why
Chelsea
Oh
council
draft
##ailed
writing
##cher
platform
cur
supporters
winner
ult
Ryan
reality
God
millions
residents
corn
drive
closed
income
##rated
##isted
sal
##owers
sources
##50
swe
##ources
##17
##ading
miles
clean
believes
Olympic
decade
society
addition
tough
##anda
##oz
south
##UTERS
domestic
La
32
Shar
70
massive
Mel
policies
subst
##EL
provided
##set
##abb
reportedly
trip
##iest
80
secret
##ground
model
##rian
powerful
exam
cancer
kept
defend
learn
mist
Rec
emot
##aint
REUTERS
##ayed
##hlet
Rad
##useum
soft
elections
##uals
complete
rule
##bon
commission
offensive
hearing
fix
Although
operations
##men
teen
##eline
overall
##cing
Tre
toward
##orrow
Hall
pair
##igg
Muslim
33
Andrew
Comp
Inc
Israeli
sport
Chic
repeated
flag
actor
##BS
##lor
athlet
##gypt
##ears
justice
Ms
seeking
Nations
Spe
trou
businesses
Jim
36
novel
center
##te
partner
showing
debut
remember
##kins
picture
Win
##enty
##lant
##olf
killing
meant
Ac
Under
scen
girls
college
IN
Nov
successful
suggested
restaur
strike
##elly
strateg
agree
Den
Dis
cash
##azon
language
quarterback
##iar
ruling
Ter
stars
Egypt
##iser
Met
##oles
commer
er
attorney
immigration
facing
##ashed
uns
chairman
imag
Christian
##vest
##uries
champion
##annel
Jud
##eless
##omp
##apped
##anwhile
##imately
##onald
purch
Then
obv
planned
##coming
##orks
employees
charged
Despite
subject
tourn
hopes
##ville
liber
audience
Frank
##iring
push
smart
mer
Mill
doz
wid
station
Chief
restrict
designed
fashion
iP
shel
recomm
##night
raise
##bn
bal
##inger
##eds
dropped
##icks
rob
bur
##ador
aggress
##iverpool
Virgin
##RE
backed
enfor
Chicago
Jackson
##gent
beginning
inflation
contribut
Card
##otten
During
Tim
Tor
##illing
status
##apt
Wales
Thomas
answer
Sl
Ari
##vent
critical
editor
flight
sides
##itarian
Turkey
cuts
profit
Wood
49
##icit
runs
##ani
epis
##issions
committed
throw
perhaps
individual
sports
##hem
Nor
##oms
sym
corpor
plant
retail
expand
card
piece
##ware
##rick
Cameron
90
fle
deg
plays
##aked
vill
##sych
beg
couldn
Palestin
opin
Great
withd
receive
directly
save
##ifth
dog
Ros
suppl
science
AN
Direct
Inter
Hum
##ript
storm
##cel
dark
pet
2020
Ol
places
traff
lose
Islamic
Liverpool
##ols
Both
Let
determin
ver
##ensions
CO
losing
resign
Mu
completely
additional
2007
finished
##ota
brain
Charl
Good
planning
legislation
illegal
image
##rook
damage
##rey
Week
send
liter
34
##ours
attend
store
sust
eth
wouldn
responsible
freedom
sem
##anced
##HS
allies
grad
##urance
protests
unp
digital
ten
drop
mount
traditional
becoming
speaking
reasons
Tra
patients
street
defence
admitted
##uter
benefits
meaning
##oken
##itc
Ars
Fer
camer
haven
survey
fan
##hone
emergency
ang
strategy
highly
request
eastern
Meanwhile
aren
announcement
concerned
Kar
##ocr
daily
Photograph
##igan
injured
nations
thinking
baby
clearly
engine
marriage
reduce
Bu
Amazon
##IA
acqu
##stein
exactly
trib
##ropri
prepar
##ification
ign
Sar
bond
##ledge
fired
princ
##uled
trading
Spain
Steve
300
supported
property
##alled
limited
spir
park
whom
newspaper
##time
##EW
Media
squad
hack
suffered
returned
##esters
dream
refugees
soldiers
mention
seeing
Atlant
absol
shown
blog
tight
scale
##ha
Kyiv
proposed
defeat
holding
owners
Syrian
##ros
minor
ST
##ero
multiple
fellow
AFP
##evin
condem
Advertisement
tweeted
##aring
##ruption
##ube
prec
crimes
surround
##ager
##IV
FBI
sun
##ufact
##ateg
Who
Well
witness
ones
##arant
missing
fully
Mag
Tel
voice
achieve
##ointed
transfer
Grand
Liber
##agram
famous
Lee
putting
Rod
spend
chem
##bert
Jeff
evening
religious
sort
##ette
caught
union
##unch
##icial
##ula
##idge
##olic
Watch
##azine
Daily
##sp
Another
Nick
fat
civilians
##noon
communities
Tay
Supreme
##omes
Championship
dangerous
territ
various
sometimes
##AM
confidence
forec
Rock
Irish
rally
##andal
##arks
Pac
##SE
explained
##arm
##iqu
ES
features
##house
Sir
organiz
size
##ugg
feature
seemed
condition
regime
table
internet
adop
images
asking
hotel
##Th
cell
Picture
wait
increasingly
Those
Vict
ongoing
cars
path
afternoon
fifth
##abor
##ction
Also
door
east
##ho
sleep
##rial
Women
##ument
driving
##ingly
except
weather
##cial
ele
Att
faces
##abin
tournament
writer
stream
doubt
##ait
drink
eye
served
greater
affected
knows
mobile
##bre
produced
Sil
##ogue
mental
electric
selling
Mary
carried
##ecting
mission
faced
management
gives
shock
Bec
Trans
cyc
Hillary
##ijing
Louis
##know
##ewhere
advoc
score
Stud
Ken
films
##ih
##ini
Central
##umn
##ulf
log
researchers
##iment
##iced
Osc
missed
##cl
broke
##rom
fine
required
warning
##oper
##ias
##aks
##rec
arrived
coast
voted
veter
disease
IT
wonder
##OL
zone
##ola
organization
Beijing
inqu
##pm
Fil
views
Zel
feeling
stocks
Stephen
benefit
##aith
##ties
##UR
##imum
helping
Wat
Royal
Carolina
establish
ir
##bur
scientists
##erem
largely
refused
Daniel
##ems
Afghanistan
Asia
altern
Like
Foot
department
willing
origin
##autif
estimated
Open
basis
Lew
Games
bed
army
manufact
artist
church
coverage
maintain
twice
##hi
##ado
purs
individuals
Wr
##21
simple
truth
prompt
acknow
II
incred
Georg
GOP
Out
##AP
Follow
offers
funds
Camp
complex
guard
housing
##ko
responsibility
photos
text
Reg
focused
spl
oppon
activity
##CC
assess
necessary
##ils
##roll
sea
38
Jul
prosp
##TY
drugs
owner
systems
upon
Barack
##eller
primary
##icide
resc
din
passeng
consumers
vs
Er
##ania
influence
##ici
psych
tim
##vention
linked
eventually
telling
37
##antage
destroy
##ront
consult
Institute
reading
Vol
##za
Instagram
lay
Sing
Yet
watching
##oster
Italian
MPs
alongside
Mont
streets
##ables
surf
Ant
deaths
physical
##oma
worse
dismiss
singer
##rie
transport
subs
farm
##iling
criticism
surprise
Bowl
##acing
Their
serve
wealth
2006
armed
ice
declined
00
##AY
session
giant
Kelly
Os
governments
consequ
##ilty
documents
standing
environmental
programme
mostly
##ubb
joint
Sports
arm
##andon
projects
renew
https
speed
expressed
commercial
negotiations
tech
professional
lawyer
prepared
founder
##ysis
##ocracy
outl
weak
island
##anted
measure
##itely
##ections
conservative
##ux
fears
##bit
##inn
pled
lic
##mine
crack
radio
##dom
scheduled
guy
Best
male
##hire
defensive
names
depart
hasn
accounts
owned
generation
##St
initi
volunt
declared
Bus
type
stopped
Bor
Kevin
holiday
Earth
gra
##lig
execut
##gers
##gar
75
impl
Harry
##ican
##rim
Prince
bod
note
Niger
normal
flood
rich
##utely
##mond
protection
Lord
cerem
nature
difference
Arsenal
rid
##hol
guilty
Korean
##essions
##aints
kid
rival
##agon
Ke
options
48
Tal
ran
##ORE
##het
##atively
urged
Bern
bag
##onn
Dar
placed
##ran
##ucky
Instead
sale
gender
Found
spark
harm
Show
candidates
Are
##icip
steps
protesters
implement
400
mach
sites
signs
remained
Middle
hers
Human
##la
resources
Haw
##illa
Davis
##rate
##tors
##owed
temper
controll
ship
##icate
Zelens
Northern
vir
arrest
##ka
slight
rat
Year
8217
Cal
era
beautif
records
comfort
cook
##IF
catch
controversial
offering
integ
southern
occup
Colle
summit
ordered
Jewish
quot
##porary
##iot
trail
##hew
lines
dollars
option
revenue
usually
##ae
actress
exchange
expert
feet
driver
Swed
coalition
##craft
write
Olympics
politicians
GET
##och
wearing
Brad
##kin
decisions
Bur
eyes
##OW
waiting
od
dress
Mod
finish
Virginia
pra
##ios
##oses
rs
##ocal
consist
purp
managed
identified
exhib
votes
bull
victim
Cop
##endum
activities
challenges
##agement
Bob
vul
ties
afford
Associated
explos
corner
##board
##hens
fant
asp
guarant
confident
Taylor
##iants
resist
##antly
figh
##remlin
Tony
Radio
responded
feed
row
Fre
##tainment
##itation
Ell
##azing
GM
appearance
##erved
Down
journalists
##ulated
myself
guys
##lyn
solid
opinion
Bost
filed
humanitarian
touchdown
##30
##athan
carbon
exerc
Poland
##aming
##atever
plane
##woman
##ivity
Dist
remaining
overse
floor
creating
failure
Commun
cry
##riend
##oft
bringing
##rast
developed
Kremlin
provides
##GB
agencies
Federal
fal
College
Internet
Cath
separate
##ounded
##emen
gain
Book
conclud
acad
rain
weight
keeping
2005
ruled
captain
activists
providing
advantage
referendum
##onym
professor
Gra
##lusive
herself
aware
Invest
finding
lawmakers
£2
##itude
##uster
tells
44
secure
elected
arms
nar
Top
happens
##udd
emissions
##resp
##rol
penalty
Church
##oe
Sur
pregn
proud
USA
Sant
regional
maybe
cool
Kenn
Patri
cold
##acity
extremely
##well
university
resol
interesting
interests
##agn
effects
blue
##where
SH
##ius
Gaz
##formation
NBA
Anton
Boston
der
immediate
withdraw
stuff
NHS
Lat
Jord
Pre
Zeal
##ancing
42
older
territory
meth
scandal
youth
##ION
Sea
Ok
effective
thanks
characters
Sky
device
programs
Football
Det
allowing
developing
west
bow
Service
festival
produce
Exp
Prof
##ikely
magazine
risks
championship
tom
yield
seat
nom
setting
##ogan
virt
potentially
Boy
Coll
confirm
district
Scottish
pip
profile
escal
##OM
Alab
Victor
faith
paying
##RA
decide
categ
struck
delivered
##PA
Us
rough
##ada
Sov
discovered
worldwide
##astern
NY
panel
learned
41
chemical
supposed
collection
currency
autom
drama
presence
apolog
aircraft
##oom
##CH
##anging
Queen
vehicles
theat
pulled
considering
vulner
Child
inquir
proposal
Str
standards
Cru
consumer
agent
suggests
##eing
reporting
Because
western
Zealand
insurance
conversation
##ickets
##put
99
sought
55
##anish
crude
##AA
##cer
##agues
##arch
hair
Conn
Rights
producer
wins
##ersey
outr
Ver
stated
##LE
Alabama
##cos
##rog
fit
evac
##rastructure
supporting
Director
northern
##apers
threats
##ova
Naz
deploy
introduced
rsquo
ministers
Francisco
pictures
episode
lived
Georgia
clin
##heme
Real
underst
NBC
artists
##ked
##ancell
batt
Young
lov
##inary
##ano
rejected
cas
assets
possibility
strength
Ann
matches
changing
Its
##ropriate
highlight
Earlier
##icking
43
##ecution
##iable
bottom
##isher
suit
remind
clot
commitment
##arters
feels
Stadium
breaking
Agency
##urred
##abinet
Int
unlikely
ideas
NAS
suffering
publicly
Rom
hate
ministry
perm
Ram
##vis
##urray
Tenn
involve
Any
governor
Ministry
frequ
threatened
apparently
##rif
losses
banned
correct
healthy
active
beautiful
limit
Former
widely
unique
bigger
##ridge
Ma
Journ
##rip
bask
Ball
Hou
critics
##inem
Ariz
##oked
argued
##ala
marg
greatest
PM
inspired
Japanese
initial
teach
repeatedly
##wr
Research
plus
broadcast
recorded
##nel
firms
airport
injuries
allegedly
violent
object
advert
bodies
familiar
married
qualif
crew
Carl
Home
Soviet
hurt
Asian
##assador
##burgh
bench
negative
Report
playoff
targets
display
##ressive
Social
##rison
som
##ien
##iny
Brook
computer
##cean
analysts
ceremony
##itutional
##SA
pointed
euro
absolutely
loved
division
approved
##iate
##tained
targeted
rare
closer
##burg
rum
existing
##works
##uate
Organ
emerged
##angers
eat
ded
Your
##how
establ
apart
Sher
sad
Prot
##iami
##ography
resolution
195
##sey
blow
##iev
spons
terrorist
deals
removed
picked
Six
earth
##erves
interested
##arden
##ansas
register
harass
Love
signing
Hel
##yd
tackle
scheme
falling
enforcement
Jordan
Three
##han
Spanish
Sol
spring
##hat
##ancellor
larger
Steven
jail
cultural
diss
Energy
##ua
Lewis
wake
wed
pushed
Anth
Ash
seconds
opportunities
definitely
Murray
spect
lands
Game
solution
##orders
Ohio
infrastructure
advice
##rum
Adam
Greece
##person
voting
##ads
##idel
terrorism
Penn
##ibr
choose
hoping
Wild
Van
##oking
learning
Zelensky
Aff
Island
aimed
standard
##iverse
false
happening
##ato
##overty
frust
pil
Miami
lawsuit
knowledge
vice
devast
Charles
2004
Palestinian
##aine
democracy
analysis
univers
stret
acknowled
promised
##ribution
##action
teachers
scoring
47
Leg
supplies
##ilton
Parliament
##ulate
NEW
##enda
doctors
##bury
winter
worry
organizations
buying
attempts
mort
##TA
hun
Laur
##ews
Houston
prefer
Dou
plenty
##ipping
vehicle
##erry
Arabia
consequences
established
Mass
suicide
cy
Hen
OF
visitors
##kel
Roman
allows
2000
unable
McD
stands
GETTY
stun
uncertain
journey
abortion
traffic
##utch
nomine
starts
stress
prove
65
deeply
vast
Az
cruc
turning
##aire
upcoming
capacity
Di
##ining
##uan
Acad
crash
Sanders
##illy
snow
broken
Mem
Jam
Stan
sy
Walk
passing
collabor
circum
remarks
onto
earnings
##olit
recru
struggling
recovery
##istics
household
Rog
Add
Foundation
barrel
ABC
##ivals
##equ
Av
FA
historic
##pping
46
seasons
apply
heat
##laim
Oscar
movies
ISIS
##pton
seriously
PR
##more
ending
grew
deputy
Old
52
Business
Sum
driven
Josh
restaurant
Disney
powers
##ucks
##obe
Tour
Author
Anthony
YouT
##friend
Champions
express
##uted
Four
##ucing
##usion
offense
diplomatic
treated
Jr
operating
Moham
##TON
Wal
rus
skills
wing
Before
##flix
completed
basket
##itors
Hong
sitting
ldquo
construction
spirit
videos
##ansion
Arizona
Hot
background
Kong
equip
##It
yard
About
Pacific
##ois
advance
suspended
Still
##ronic
##icient
length
Crime
corporate
compar
missile
Club
talent
##enders
animals
contest
McG
Wind
Speaking
##ray
Time
favorite
District
balance
##onto
carrying
##atured
boys
determined
Patriots
##eted
yourself
Iranian
##osure
Journal
##IG
coordin
easily
Only
claiming
sustain
Bol
##reek
##alls
Life
##BO
loan
degree
bought
Econom
##aren
194
raising
decline
warm
##wise
innov
8220
Bet
##pson
earned
tab
Madrid
Mir
Yes
##ez
serving
##ossible
climb
retire
sending
ge
sav
Live
Eric
accus
Story
songs
amazing
identity
perman
nor
studies
proceed
insisted
imposed
instit
smaller
Argent
equal
predict
Luc
YouTube
##pper
Global
unit
expectations
coff
camera
acting
welcome
listen
Michigan
task
##ource
Netflix
##standing
initially
sentence
Cub
rapid
Ah
trend
replace
die
Kent
mand
##OU
accident
Theres
moves
tar
Kn
discussion
##just
##ext
stores
##ortunately
reaching
##ship
##asters
sharing
handed
truly
##ww
Toronto
moments
severe
rein
possibly
##rier
mayor
##aly
equipment
##orough
expensive
PA
partnership
sister
congress
fraud
industrial
emotional
##PN
gap
##anged
slightly
Celt
notes
##ipe
poverty
Though
belief
independence
sud
franch
##assy
becomes
##pet
Marc
##rig
neighbor
Du
##rible
desper
basic
##lusion
journalist
prize
covered
gall
##born
clubs
iPhone
##acks
emph
fort
disaster
monitor
stood
burn
Sk
presented
devices
##atically
Robin
##boy
tast
Sa
##hab
##icious
Wilson
experienced
sudden
viewers
##eces
##embly
##aph
reaction
##ader
tensions
discl
alternative
semi
Ty
Cat
53
Festival
struggle
statements
icon
##ipl
finance
##asy
lob
##10
feat
2003
Clark
##erate
inquiry
##okes
##under
nice
##usal
##azz
strikes
explain
gar
Public
##ns
Nob
Squ
findings
##eman
values
Jen
attacked
##fire
##TS
Bron
tend
direction
leaves
messages
aged
authority
planet
Treas
shift
contem
van
gains
Kat
skin
Turn
positions
Moore
remark
hero
wish
Iv
friendly
whatever
Army
emp
Academy
directed
understanding
Nav
younger
Road
master
classic
Bang
##rov
edge
conducted
recommend
##outs
colleagues
depend
corruption
behavi
##encing
buildings
##itals
follows
heavily
bird
uses
continuing
stake
54
##aped
forecast
Golden
##sewhere
##care
Related
excited
rape
suspect
entered
Steel
CBS
Spec
Ut
lawyers
##ussels
symb
chances
Theresa
surg
##isf
##ords
Work
holds
behavior
Gall
bom
Abb
tests
2021
##izes
adults
payments
Once
web
WH
regions
Russians
watched
##ellow
##ophy
pitch
pounds
Web
##iversary
ultimately
##ario
Vide
##pe
footage
##ella
Tory
vacc
spokesperson
Camb
receiving
Muslims
comedy
vulnerable
51
discussed
##erous
##whel
method
resident
privacy
Dam
##gu
shop
Conservative
Andy
entirely
heads
##mon
quiet
brut
closely
core
Test
Long
AL
##rosoft
scr
qual
volunte
lock
Space
items
##iffs
##ifying
150
Awards
doctor
hal
returning
Fam
tort
meetings
affect
surprising
location
Among
##enses
Gal
sees
institutions
remove
Miller
goods
charity
regarding
user
Dun
convicted
demands
waste
Ox
pushing
Turkish
MORE
species
##vant
##IM
Brussels
##OC
mic
##IR
gained
relatively
cutting
crucial
unless
hits
##ulture
organis
8221
Jeremy
Cast
##the
rdquo
LGB
Brian
abandon
ven
promin
##aug
Back
color
shots
##enture
##tr
##iences
surve
hat
Catholic
Michel
##rist
worried
##maker
revolution
##ordon
Men
spokeswoman
##iders
Abd
LGBT
intended
##mad
##FC
Microsoft
connection
involving
Justin
##adow
impossible
athletes
assistance
breat
tonight
combined
window
seats
##icts
##IP
##aled
approval
trouble
pace
root
controlled
##anny
Wars
tradition
exports
labor
appoint
route
headed
notice
Image
Team
##ervation
passengers
Sarah
Come
chain
Mrs
Som
Cook
##nic
Pot
River
midfield
blame
Jac
AC
featured
Belg
documentary
museum
alco
##iy
leads
rail
##alling
readers
Film
##etic
www
Rams
Mot
taxes
migrants
agenda
thank
pen
Doc
polls
drawn
ranked
celebrate
originally
tact
nearby
testing
extreme
filled
AT
creative
flat
isol
pray
##DP
animal
package
##wan
##NA
Whe
fake
Rem
##oral
##adel
archit
##ovic
tie
Es
Kl
Defense
Mur
vision
marketing
joining
##amin
Corp
Attorney
##ription
Simon
awards
##ita
Khan
veteran
Way
sixth
drivers
assistant
scenes
opposed
legend
##apping
honest
##mates
Centre
anc
Fund
2001
circumst
##vin
Gh
anniversary
grown
turns
imports
##ba
reduced
failing
Look
profession
Night
writes
Jess
reput
##ili
Broad
relief
##overs
easier
##enez
Harris
software
##odes
Hay
anticip
consp
combat
hyp
dance
##redit
##auty
wave
attended
memor
Music
Valley
none
batter
03
associated
Ford
##ervatives
##inals
parent
##ennis
obviously
Rio
##ylum
##win
See
suc
split
##gment
rom
##itzer
overwhel
ends
dozens
Channel
800
immigrants
agents
##employ
£3
streng
Fire
restrictions
emphas
shortly
##stone
Judge
Jose
ment
termin
Girl
Mari
Polit
Ba
begins
destroyed
bound
Il
honor
##ca
motiv
officially
importance
strategic
dial
Lind
forg
ESPN
Lt
##hell
Museum
##allas
extended
gang
surrounding
##iana
heading
##essee
##idency
surprised
neighbour
belong
##eph
600
##ASH
franchise
Yemen
##acked
ON
Food
apprec
matters
sequ
estate
plot
##DA
##akh
Jay
##rett
confront
generally
Conference
57
##CE
flights
##byn
transition
likes
causing
Enter
Giants
MS
Tit
rebels
Bry
teacher
Berlin
Die
56
musical
##otic
glass
advis
##ching
finals
##iley
facilities
plastic
impressive
deleg
studio
adds
passion
opponents
accepted
##kn
sup
58
##ugby
thinks
section
Ali
##away
##pread
nav
Matthew
column
##place
##ishes
talked
Mah
##ria
Sport
writ
substant
##apse
proced
##inct
Pan
Ross
advertising
Mount
##urric
remov
adviser
visited
##ashes
indic
##mosp
Cruz
Bir
##operation
##achel
##load
listed
fled
photograph
max
Allen
Corbyn
effectively
Cow
Where
striker
Tes
PH
wer
Balt
Jason
##veland
cyber
internal
Hamilton
Jenn
##idespread
##abeth
unve
##AF
##igrant
sharp
64
radical
obvious
anonym
surgery
requires
purpose
eating
wood
Eastern
##TV
attempted
brings
Assad
embr
Libya
lit
du
wedding
Const
##br
promote
harassment
##uana
walking
punish
racist
Morgan
2002
factors
##orry
pal
village
estimates
ast
compete
optim
helps
ring
assum
asylum
95
flow
royal
occurred
##celona
yes
Color
promise
jury
proved
unus
##shire
acts
detail
pand
dramatic
intention
Town
titles
tied
##bl
seed
Blue
pieces
disrupt
winners
##anka
percentage
Sus
##anna
code
Talib
Coast
contain
ut
##otted
Hear
refugee
Gov
reporter
Fe
returns
argument
##che
Gordon
dozen
Ra
##OND
surge
##lah
disappear
intens
subsid
announce
lux
Key
##izz
rivals
widespread
alive
##osen
Ple
##stream
sick
Dallas
steel
prosecutors
succeed
liberal
medal
significantly
Mun
expansion
warming
rescue
suspected
captured
Bell
essential
Pack
bright
##da
Force
extraordin
Tennessee
controversy
diagn
Dol
##urricane
duty
command
minimum
otherwise
Max
Cleveland
stronger
##ali
Nigeria
Rose
Jonathan
orders
exercise
Barcelona
##PR
##west
Syd
kil
alcohol
determine
vital
pool
incredible
##uts
##oured
flying
##iat
Jersey
##rimination
represents
Free
##ompl
##erb
strongly
desc
coin
dismissed
circumstances
Cav
Mail
Blair
Power
Video
AM
emerging
Patrick
##phia
Share
Profess
Treasury
##arus
actual
transform
producers
tomorrow
Upd
brill
rating
closing
Stand
##icken
weren
hitting
sets
pictured
overt
marked
laugh
behaviour
##rove
59
Hun
##life
Atlantic
##ington
##isa
##ilit
Alexander
bail
##adelphia
Beach
unemploy
##uated
##raph
scientific
Kate
basketball
anx
fewer
Sn
stadium
##ga
##ijuana
Pictures
org
numerous
accur
coffee
unpre
##rators
photograp
Medic
fol
lowest
performed
concept
Greek
Beck
##million
identify
plants
facility
##ologist
##box
##ulous
Eliz
CH
Fort
fish
earn
##egas
stick
roughly
channel
Macron
End
legit
trick
##As
Sydney
sounds
convention
permanent
Leon
ble
cease
troub
##aze
tow
drag
Sud
ride
solar
proposals
##lahoma
##iano
Philadelphia
Sign
experiences
Roy
practices
pod
Id
Bloom
##ocratic
shouldn
Develop
IM
##inho
##tered
Anderson
##iscal
Pen
tra
narrow
schedule
Andre
illness
##eland
bills
spin
cart
threatening
civilian
judges
Greg
meat
Kir
##hare
Indones
upset
gathered
Seattle
preparing
##ST
##enezuel
fighters
wage
shopping
##11
reputation
##INGTON
fallen
pound
collect
export
outcome
desire
affairs
improved
actors
##ati
targeting
mal
Board
##rees
##rell
concert
##abilities
ET
##ocol
Southern
lies
##acement
Rick
Bull
encoun
welcom
af
pipeline
surface
##endment
increases
##vereign
##etary
missiles
76
##mes
pattern
##essed
struggled
Land
sovereign
fasc
Oklahoma
##rity
Graham
##uls
66
everybody
consc
transl
85
cited
Educ
Rub
##ounced
fought
Sever
##rehens
Award
encourage
Care
delay
Div
Network
atmosp
Venezuel
##rations
weapon
##iner
satisf
purchase
electricity
courts
##ulations
Nic
Taliban
##acle
exit
borders
##arity
Sub
ethnic
sweet
explo
NC
appropriate
##awn
favourite
72
beating
Sweden
exciting
appointed
mistake
imagine
surviv
thoughts
##EM
fill
prospect
##aron
organisation
##gl
##weight
contrast
knee
trigg
193
delight
Rev
investigating
Lions
que
abroad
adapt
ambassador
Pel
deficit
memory
dinner
bear
Senator
adult
magn
citing
unclear
replaced
competitive
##ooth
shape
Fair
specifically
##cedented
concluded
Stock
swim
casual
prompted
##cho
euros
shif
province
walked
profits
blast
##rad
Dev
argue
Kansas
##ENT
sch
Gaza
Eth
causes
##eled
endors
wine
spoken
activist
file
technical
models
Cost
Labor
##real
featuring
angry
##holders
entertainment
roles
explains
variety
forget
Eag
##fall
Hor
pit
Las
##list
##exp
##uous
##nam
Ray
##upol
links
letters
please
priority
craz
newly
innoc
##iracy
Elizabeth
involvement
elsewhere
##mann
puts
nominee
neut
factor
ing
unprecedented
Snow
unw
##ourne
dealing
##ela
connected
sparked
Belarus
Supp
cup
##aver
Portug
##town
excell
##LA
fees
##ribute
UC
quoted
##agh
##itable
##ports
zero
##apore
SP
aggressive
Arch
drew
advanced
##atar
payment
Burn
concent
blocked
Ian
hoped
settlement
comprom
##EST
Chair
pollution
nomination
motor
Cov
update
wounded
Lady
Sean
Contin
elimin
AND
Following
##uests
Huff
therefore
62
switch
##rah
##rest
Square
backing
67
enth
pandemic
oblig
discrimination
deadly
smartph
architect
discussions
referring
##mo
tun
engaged
regulations
##can
NASA
writers
totally
beach
Society
Mariupol
Again
alliance
machine
##cy
Broncos
Colorado
Lyn
located
##echan
enjoyed
##ASHINGTON
hosts
Credit
Barb
Vegas
##This
outs
bon
##icy
cha
Mayor
communications
exposed
retired
subm
prepare
contracts
Lam
lie
theory
entering
##illance
employment
square
passes
Singapore
##cott
Lo
medic
Mueller
minority
resistance
prominent
##riors
Hung
##elson
##hal
Dutch
Cra
persp
egg
reforms
##isan
overs
indeed
Ins
##ancial
Denver
mut
tank
neither
Alan
tiny
native
king
patient
£4
brilliant
Little
Columb
Palace
collapse
banking
dispute
bra
dict
##arrass
facts
Hist
Second
typically
Cur
Brady
##An
extraordinary
headqu
champions
delivery
##Ch
##war
libr
blamed
usual
##verse
Stone
##part
divor
##iere
Cohen
##emble
78
aside
mixed
68
chosen
materials
cheap
##roit
##roid
Jean
##idden
Minnes
outrage
##opher
separat
Philipp
##ottenham
compens
context
urban
##onna
acknowledged
Thompson
networks
##era
behalf
bes
femin
visiting
suggesting
##idelines
subsequ
Boris
escape
##enz
detained
##But
##etime
fu
Merkel
insist
Atlanta
##rific
houses
headlines
Hosp
counsel
##icing
Plan
##uations
Administ
consecutive
therap
##gender
selection
Dead
##respond
neighborhood
founded
Financial
phil
overseas
##umber
Vik
Swiss
narr
Roberts
##iller
speaks
accomp
##lers
Mat
challenging
Take
READ
##owa
73
##pay
Iraqi
63
stepped
##UN
commod
##acking
borrow
##ais
manage
Gary
paint
murd
##WE
##rating
mir
Did
Env
farmers
##ookie
loyal
cooperation
emails
sand
##ucker
250
##EF
marijuana
harder
##uments
publication
relationships
finds
granted
Pit
Minnesota
##avan
billions
embarrass
##uthors
religion
guide
hur
##oping
Fal
beauty
Argentina
Antonio
detention
Bas
Fred
cabinet
##lder
intense
hy
Techn
##pass
understood
historical
77
ticket
referred
Dur
##osition
instance
accusations
fiction
performances
Somet
posts
Victoria
intent
##oca
flo
initiative
defending
##He
keen
ourselves
militants
Gun
occasion
comfortable
wider
Viet
##castle
Call
presidency
dedicated
Jav
##lights
Ven
Corn
birthday
deliber
##agg
Ronald
Please
adjust
Deb
Tottenham
distance
Hart
jumped
rely
Pu
##EA
Charlie
Water
lots
Henry
memo
anger
##resent
Independ
Holl
syn
Vice
busy
formal
Shan
regularly
##icer
chose
##ello
##season
Gill
##adi
invited
units
##ifer
##Le
dialogue
Commons
##rant
Several
entry
74
Children
Education
complaints
##On
Joseph
Oper
speculation
informed
clients
apps
69
Detroit
##igned
humans
marks
ham
racial
pilot
cards
temperatures
customer
Major
Five
##aed
700
height
##iration
##Tr
dominated
##abled
sac
unn
neutral
empt
##ologies
##ighth
##aling
prin
Leices
luxury
##apol
Capital
sentenced
tweets
##ributed
Iowa
##alo
mainly
##irty
##itage
Lake
Maybe
CIA
disappointed
worker
##ateral
##die
temporary
##bourne
bat
##agu
structure
intercept
Ltd
##For
stance
protected
cinem
##ONDON
Kennedy
uncertainty
prohib
Right
Special
##agan
##aska
flu
apparent
nominated
Mexican
Aven
Philip
accompl
OK
tickets
install
questioned
adopt
fiscal
Trust
capable
##yo
##rik
exhibition
Colomb
Professor
expects
suffer
mentioned
slam
knock
traged
forms
hall
Gulf
Malays
personnel
##ensus
SEC
##force
##antic
##wich
loans
##roc
##sen
##urers
defender
silver
Bab
funded
Fur
pages
Hard
##anche
Services
Maria
##ele
investigators
enh
welcomed
##SU
et
faster
##ether
Serge
scores
##enger
##fit
Crimea
##apper
contributed
demanding
wonderful
midfielder
executives
Bey
##dy
authors
##12
##esty
Der
##onduct
Reading
Marg
Mour
Winter
recognition
avo
membership
Pant
criticized
ster
##asp
atmosphere
multi
guests
map
##eld
##venth
types
surveillance
restaurants
##abil
settle
retirement
strengt
sight
complaint
##amental
headquarters
##va
Jun
tribute
addressed
represented
departure
##eting
IP
predicted
Dave
campus
depth
probe
##areness
Russell
##ernand
Diego
##usted
condemned
Jane
Brother
theme
##eeper
mechan
category
sweep
ID
recession
Thanks
Kiev
nob
dating
agric
##heast
interviews
FO
##VER
Sel
##vy
##instein
reflect
employee
##amber
drinking
receiver
output
spr
##known
Pay
PHOT
disag
terrible
McK
landsc
Neil
weekly
creation
Jews
threw
performing
##anne
Py
motion
incidents
revel
Newcastle
county
Jes
updates
opposite
##icop
Pope
ped
Never
deadline
investigate
unusual
Uber
enthus
detailed
guns
GMT
Romney
Ka
tested
##beat
extent
##rence
Reb
McCain
Dub
reveals
begun
##AG
homeless
Below
conce
Environment
##uma
Stew
stuck
racism
Saf
Fri
cents
Wik
##umped
tools
UP
##lying
Warriors
Civil
interp
Each
trailer
reference
##ni
##ctic
##uin
Ha
indicated
Nik
Watson
Ret
selected
beaten
string
rebel
overnight
pregnant
##riers
##ardo
##IFA
##oration
grounds
odds
##amm
##ares
destruction
toll
resort
Development
intervention
hospitals
phones
##worth
guess
SHAR
gross
Assembly
Bloomberg
##imp
dry
overwhelming
shadow
Govern
Field
Switzer
##owski
Od
##UL
Chancellor
uk
hosted
forth
stations
satell
breast
pu
##elfare
praised
Jimmy
##hy
##expected
Cross
Ukrainians
Vill
stunning
pleas
fantastic
mainstream
##aga
Walker
ramp
brands
##ras
61
application
##ishop
aggression
tourists
Official
funny
healthcare
celebrity
##annon
Science
Aaron
deport
Kingdom
managing
bin
handle
mel
##cript
##itol
alt
Affairs
shirt
##ector
anywhere
Hospital
legacy
Nazi
Company
awarded
waters
Gri
moon
Latin
recip
comed
broadc
##edia
Executive
discipl
##ointing
Family
##umer
Lar
mine
Prod
##ete
sensitive
engage
criticised
transpar
boat
Reserve
rig
Utah
Teleg
transgender
Ted
trees
##igen
SE
##dog
impose
peak
struct
democratic
pension
##mingham
embassy
Switzerland
Ly
moral
congressional
Perhaps
alert
seized
interact
£5
seventh
Charlott
Tok
Ferg
##ynam
##regon
illust
Roll
adopted
Arm
Hom
aims
cricket
ancient
Buff
FOR
##iveness
Rome
Santa
Such
##fe
Howard
organisations
##arsh
Craig
fundamental
##dict
registered
rub
Cole
raid
Oxford
golf
##esy
Hu
dad
demanded
brutal
##olas
http
Rand
##repr
teaching
Phill
elite
extend
EC
Nad
defended
diet
##ikes
##athy
##eals
sugar
##greg
truck
calc
FIFA
Nas
##reprene
equity
academic
Bad
capture
apartment
##borne
locations
peaceful
mile
##ommod
instruct
Dig
virus
pledged
constit
##hetic
parliamentary
correspond
Les
Bul
iconic
##roat
Nev
dogs
reducing
soccer
##umin
Asked
tool
appearances
desk
custody
##iro
##onom
Woods
strengthen
Mand
laid
ads
misc
##irates
unemployment
##umph
kilomet
requests
achieved
Sav
Hotel
airline
rural
terrorists
##ultural
Carter
##fol
script
Next
Hold
##break
limits
ED
Stat
##ima
##ora
Leicester
Ur
accompan
excellent
participants
mos
##umes
damaged
##irts
##arely
Rav
71
celebrated
##adesh
##xual
Birmingham
Cooper
excess
sympt
bombing
Evans
obst
bloc
Stewart
taxpay
combination
perspective
unexpected
mail
##atre
thrown
promises
Warren
1999
absence
Oregon
jun
veget
Bridge
unac
foss
DC
thus
producing
##argo
Administration
universities
quit
##gram
Comey
toug
tens
supports
##ogg
Bud
Mess
Cambridge
Marsh
investigations
Liberal
Princ
AS
rent
coaches
##ded
##do
touc
enorm
petition
sky
crown
Glas
mouth
formed
##like
tree
Unf
##imal
Trade
##myr
Bat
awareness
operate
poet
coup
rhe
GDP
##uits
devastating
Hug
shocked
Pent
##ternal
##raid
desperate
broader
##boys
manufacturing
scrutin
Warner
##sters
##rav
##ja
Oil
Sudan
##appy
mortg
##iamond
Abu
Project
differences
vet
latter
CD
Having
##ira
accommod
helicop
##abbed
elements
Aut
Cardinals
##imore
Gab
Sab
Indust
##reens
Eagles
Packers
arts
##AND
Cold
la
chap
Class
DNA
streaming
tariffs
##onsin
arrival
equival
tragedy
Cam
accel
saved
professionals
Head
races
Christopher
##oh
conspiracy
##uable
LA
##gen
Tech
Given
narrative
##met
1990s
##isconsin
##afi
##ampton
breach
Steelers
##phins
hole
unknown
lift
Tai
cycle
label
roads
propag
bath
tries
Common
##iti
##stan
clash
Mars
rall
stressed
Elect
ally
relevant
crazy
cert
##ping
20th
##key
##nik
##laimed
inev
assessment
staying
upgr
Ren
maker
##odymyr
Through
Tem
resulted
function
1998
arrive
Leban
##ureau
##mate
cru
representative
clothes
Gib
entit
condemn
toler
diversity
amp
enable
Hal
fed
Row
edition
##erald
##eries
##urer
tall
Kentucky
testim
Wisconsin
depression
##stal
respectively
Reporting
falls
##henko
Lakers
tracks
Mourinho
##osh
elig
knowing
Shares
##inth
sexually
gift
encouraged
##itchen
##auc
fee
phase
tennis
porn
proof
##ework
##yright
calm
campaigns
reviews
Delhi
sustainable
incredibly
participate
Beng
Benn
prisoners
bul
phen
##agers
Austin
Perry
Pitts
pin
lunch
frag
Kenya
describe
coaching
prol
rhetor
Lav
offices
tone
Prize
frequently
##gow
drawing
##fast
stayed
rookie
stability
keeps
arrang
Murd
Qatar
##earing
suddenly
weigh
trained
soul
Represent
##orious
Volodymyr
08
##alia
horror
Eb
Mob
Android
Information
Spring
ratings
momentum
welfare
Inf
Conf
##rehensive
disturb
joy
guest
vowed
obtained
senator
attacking
Nether
dies
personally
Sex
necessarily
##uild
49ers
WASHINGTON
SN
premier
##ilateral
firing
taste
cells
##itary
representing
mountain
mining
noting
##rous
cul
attempting
ballot
##nold
Whether
maximum
Jamie
saving
##rich
##bell
##hatt
premiere
opponent
1980s
DE
representatives
##ila
Without
Policy
doors
collaps
opens
##itar
Whit
symbol
Tokyo
##heim
economies
Wimb
shr
Nat
Edin
blind
scor
reduction
Theatre
Li
Baltimore
SHARES
Check
88
strain
##lan
##ledon
improving
pock
metal
hell
##owell
roster
liqu
Palestinians
outlook
##osis
ocean
Ten
tips
Sem
essentially
##estyle
Capitol
Everton
##rates
##ubbed
torture
##igar
##ikh
Netherlands
schol
hip
79
Organization
Bangl
Editing
Roger
Est
Dream
EPA
bonds
Harvey
assert
##ogether
stretch
reun
margin
##olen
##rance
entreprene
uncom
Oak
Has
Amb
silence
##ALL
tap
##ylv
##ht
articles
describes
guarantee
84
suspects
##rd
SHAREShare
Bond
Belgium
Dj
Disc
conver
##chest
relax
Wol
jet
consistent
Rangers
wire
Manning
survive
degrees
Jesus
grant
##manuel
Michelle
Unfortunately
Bruce
Sri
nurs
Melbourne
sorry
answers
BR
bombs
stim
##PS
Ow
Obs
pleased
##ussia
occas
print
unveiled
sectors
Dick
Wimbledon
Sony
Climate
Euro
childhood
Serb
Cho
07
consumption
survivors
Pittsburgh
resolve
Rh
Defence
Indonesia
gathering
##oen
designer
shout
march
affair
##erts
Musk
##aden
##aser
lying
Pop
Federation
afraid
Hawai
##iop
tourism
##aders
outlets
brothers
Orle
##usalem
##water
manner
equality
Adams
Fergus
Bal
prosecutor
fossil
Division
constitutional
##ighter
strict
Dal
beer
##inations
##rimin
05
inaug
Action
ranking
##etts
##acher
Jerusalem
Collins
Equ
ease
futures
Morris
unfair
politically
theatre
Domin
craft
AR
Governor
##vard
Curr
barely
PC
Exc
establishment
##lining
##And
##bed
convin
rooms
couples
rapidly
conven
Jennifer
##sex
##ials
Texans
Orleans
Everyone
Medical
##By
##VID
Jacob
Danny
##TO
##ika
shoulder
##TER
premium
##rent
##oker
perpet
reward
recept
##elsh
yellow
mood
select
##oyd
1997
equivalent
Saints
##ylvania
hired
savings
girlfriend
##rupted
rocket
FR
soph
##iece
Series
virtual
Dow
properly
controls
Leader
conversations
owns
##ouri
communication
streak
Was
##astrop
##ewhat
explore
protecting
remarkable
##arth
tox
Cardiff
Pros
neck
Circ
investments
shame
##agen
spell
ow
exclusive
traded
milk
recording
Taiwan
solutions
IC
managers
##unes
starring
counts
successfully
celebration
monitoring
weaken
##UM
followers
nut
##ghai
Emer
Glasgow
Ju
meanwhile
Pentagon
pup
Exchange
audiences
exposure
##itious
advertisement
Ocean
eval
competing
leaked
##rooms
##rative
ranks
AD
covering
deny
Aub
regulation
fier
elder
provider
FT
developments
Reds
touchdowns
complicated
encouraging
Moon
trem
packed
##point
Penns
awa
##ache
Ron
Ap
privile
persu
hang
empty
forcing
replacement
landed
bridge
divided
Welsh
uncon
symp
##elle
Egyptian
##ulating
Kerry
##viously
myst
##uties
convinced
Buck
##str
Tories
handful
##ums
Ho
resignation
Weinstein
86
87
Shanghai
bars
Anal
Management
arguing
Hann
recovered
##verage
##inder
hung
fest
habit
buyers
Freedom
Teh
Deputy
striking
construct
Hamas
Link
platforms
##ami
towns
horse
applied
##onz
##look
cameras
promoting
backl
somewhat
tor
graph
Nich
boot
joke
##bar
coordinator
Venezuela
seemingly
literally
LeB
colour
Ferguson
TS
##apolis
##etsk
##ioned
##awa
##agic
explan
volume
##ME
##utter
Duke
Ku
choices
symptoms
settled
approx
planes
Hit
##weet
scenario
02
Xi
##erties
##ippi
smoke
Pennsylvania
##ao
Ale
##gate
##ORK
somebody
##mers
withdrawal
directors
##GA
feelings
poison
Ep
hardly
reass
divorce
Low
##pro
guid
possession
unions
everywhere
colon
Run
analy
permission
nobody
camps
##ker
Robinson
##ERE
##iples
chef
Staff
connect
Chairman
obser
##cons
##ILL
lifted
tag
##rete
Edinburgh
clock
fab
labour
View
bol
OP
handling
throwing
shocking
Indeed
appointment
testimony
classes
engagement
Ts
resigned
landscape
Vietnam
Brooklyn
##hattan
river
defeated
innocent
ridic
##aya
BE
fate
Airport
1970s
thin
estimate
##abe
pursue
Short
Arts
##rets
pure
Wolf
lucky
substantial
stages
highlights
delayed
enormous
exclud
##ahu
honour
McDonald
##awks
je
badly
strange
vess
humanity
##isive
urging
09
cloud
Airlines
jur
remote
Navy
yields
##inking
flex
auction
##ups
Manhattan
partly
shelter
signal
##ye
replied
salary
announcing
websites
collected
Emb
98
Murdoch
stor
kicked
Luke
##pan
##ione
Trib
recognize
Jong
exem
Ref
wages
invent
##ubs
evol
Mississ
Nation
repeal
Express
##II
Jets
sentiment
volat
citizen
halt
advocates
amounts
##aret
torn
factory
Dolphins
incor
Terry
##onnell
##aki
120
conced
Cowboys
Thank
rarely
##rors
rhetoric
##play
fatal
Var
##onia
ideal
chaos
titled
iron
Price
ITV
##ihad
##rait
dates
grade
gallery
contemporary
##acco
foundation
association
Source
viewed
vig
suspension
##TH
briefing
eighth
##inding
outstanding
earthqu
fulf
voices
83
clip
fairly
##igation
spotted
Bos
##bean
##rator
Hunt
lean
##anges
taught
collective
basically
Beat
catastrop
propaganda
monthly
Covid
##shore
Tesla
Chap
flav
Hurricane
£6
fruit
Morning
Erd
compos
killer
Brazilian
shops
rush
landing
interpret
highlighted
stable
disappointing
extension
reject
intim
Tun
Fall
##phy
philos
##istol
Colts
racing
secured
requirements
households
drove
ups
flaw
##urities
click
ranging
Entertainment
Dubai
Edward
clothing
wore
pregnancy
odd
##bor
Pier
conclusion
hacking
burning
proven
dynam
Donetsk
slowly
contained
Hope
integrity
Chiefs
equally
violations
Obam
Mississippi
Portugal
Digital
enemy
##IVE
loud
wheel
##rapped
##itchell
triggered
comprehensive
talented
##orous
Economic
topic
Hus
passenger
##otal
shutdown
##lando
backs
expecting
client
launching
ju
##19
kidn
gig
##ellect
warnings
##rary
Which
##Trump
Plus
Kavan
garden
##achus
element
Cry
NCAA
##lynn
Cz
Osborne
Wright
phr
Spurs
painting
Gil
Queens
breaks
##acc
cable
abandoned
carries
Lawrence
##oned
promising
dying
Nobel
discovery
##orship
##ibilities
Zelenskyy
legitimate
Coal
locked
Marvel
##ATED
##emed
Scient
##star
Rodgers
Amy
anxiety
Maryland
constant
Make
##oop
##cks
regardless
##ockey
Intelligence
Holland
##achusetts
96
Bangladesh
hidden
Illin
Griff
guidance
hide
##iated
Season
Cy
##ovich
grass
teenager
Authority
Swan
revers
verdict
Mov
tur
Ak
applications
comic
attending
reserves
satellite
decre
politician
##abet
jack
generated
97
Potter
nationwide
Mitchell
wealthy
cigar
##inity
Program
typical
##uration
popularity
diverse
##iform
Adv
Others
papers
publishing
insists
Massachusetts
##istle
anticipated
##otyp
Rey
##owing
reads
Independent
##SW
##ean
Tehran
tonnes
Talk
Keep
##Re
Click
inequ
Cuba
chat
resulting
survived
##ounce
hadn
PS
fighter
benchmark
violation
contribute
LeBron
dressed
##anth
employers
Norm
Tower
##lessly
penalties
bags
Local
trillion
smoking
prospects
04
forever
rebounds
Celtic
mistakes
rugby
fault
compensation
##oted
Forest
crackdown
##lets
##Ad
##burn
globe
##amsung
assass
Norway
deployed
medium
veterans
Polish
SC
##Ar
pump
Orlando
##alks
solo
valuable
##oto
babies
##ectic
81
Review
supermark
HBO
Fab
##olitan
Peace
Kyle
##oli
literary
##AK
copy
chart
stamp
hug
expanded
Angela
##chi
##rive
disorder
winds
Ib
Illinois
recognized
##minster
bold
ownership
Hamp
goalk
##eling
unaccept
suspic
QB
Celtics
rounds
89
##umble
##igenous
ages
##ivan
properties
princip
deserve
promotion
expression
Ethiop
Yorks
dropping
serves
retailers
episodes
Campbell
lights
existence
##aka
Albert
jailed
longtime
Brent
Catal
organized
sustained
##igger
prosecution
picks
renewed
continent
providers
hosting
##iciency
stolen
opener
extensive
legally
Have
##ancer
distinct
journalism
##ss
Publ
clar
Form
Near
Friends
drone
##erto
evil
maintained
##oub
##uctions
##endous
library
Full
Cos
ignored
obtain
agreements
Hand
caps
approximately
Ker
comparison
Sat
challenged
Ye
spots
ordinary
fert
carefully
##igers
Market
visits
recruit
Dark
grab
21st
##ailand
Exper
soldier
stem
mum
urgent
recommended
steal
forest
##anner
lobby
showc
conviction
##ATE
reck
92
explosion
Nelson
intellect
musc
Feder
generations
##dale
##Al
constitution
venture
Leeds
misconduct
funeral
volunteers
##anz
lady
##har
myth
tent
seeks
##eli
inher
junior
Kavanaugh
1994
##ta
relatives
ric
Indiana
republic
sty
94
Missouri
##acular
Laura
LONDON
contains
swing
##ocide
##udes
voter
mad
perfectly
Samsung
chann
Flynn
normally
##uting
##aration
exceed
cens
exception
Christians
openly
FC
distribution
##annes
Bears
ships
asset
pct
HIV
Crown
echo
insurg
##axy
##onic
Further
entitled
steady
Aud
gover
Arctic
Sessions
headline
Wayne
delighted
Columbia
Opp
medicine
playoffs
##RC
History
Thomson
Bash
##ardash
provision
imper
witnesses
scrutiny
CL
Erdogan
Yorkshire
legs
1996
attitude
celebrities
exch
mate
gif
##ographic
cooper
##OO
temperature
somehow
introduce
merely
FOX
editorial
Ath
unt
commander
waves
governing
innings
Kurd
Raj
##kov
improvement
requested
Hungary
Ay
denies
Thailand
##isons
walls
arguments
statistics
longest
recalled
industries
makers
chancellor
Marine
anybody
minds
somewhere
scar
Ton
01
unacceptable
lineback
Mother
##ophob
principles
##aping
toxic
fixed
crus
venue
posed
##jan
fastest
Windows
confirmation
elev
fantasy
bully
ambitious
realize
eligible
Online
93
Hod
crossed
##ocolate
apology
##rin
Ott
##eason
Scar
pulling
##reck
Article
caution
##tic
reluct
prost
Browns
singing
£7
ingred
acquis
solve
##EP
focusing
TR
tale
tip
##UP
risen
useful
astron
3D
Ark
innovation
##22
##erg
guidelines
IMF
collaboration
constantly
expanding
reiter
punishment
Ll
experiment
photographs
tear
pose
File
uniform
crossing
diplomats
courage
Pic
Crit
economist
fields
pleaded
##olly
reasonable
bike
mothers
##acare
##eva
listening
progressive
lessons
versus
##insula
preced
gotten
Gram
##IGH
concrete
Univers
Chen
Hop
Fut
perce
destination
asks
investor
shareholders
epic
##jection
tears
##usive
influential
Murphy
finger
rises
harsh
Vis
Tam
participation
Mohammed
##ocation
Kal
ceasefire
unlike
discussing
Commissioner
technologies
Boeing
memories
cleared
smartphone
##ologists
Ferr
scientist
Islamist
##ura
##lock
encounter
bowl
##osi
##MA
1990
affordable
Bah
covers
scream
Cabinet
##idays
##mail
##wa
Czech
telep
virtually
Hon
SW
tactics
interviewed
billionaire
Obamacare
newspapers
swift
Clarke
implications
crimin
##inge
baseball
Community
sam
##elli
Peters
COVID
trapped
nerv
senators
spy
folks
Raid
Dor
hike
tragic
Celeb
Anna
Officials
primarily
Swedish
bread
coinc
donations
Mack
##eo
relative
illegally
fleeing
qualifying
pointing
reign
sque
picking
kitchen
posting
consistently
revenues
##eding
accord
Had
contribution
##esc
checks
nick
distract
Does
admit
Gi
Krist
Doctor
celebrating
Priv
error
Arena
anyway
gri
complained
mortgage
cos
Hawaii
rushing
##ulus
quant
##aeda
upper
##wealth
##owned
attracted
Bri
boyfriend
BP
Ast
hin
Should
wars
accusing
Sad
Christie
coc
inapp
tea
##bal
Abbott
##acre
Baker
electronic
Fif
Bernie
Qaeda
chicken
Ban
06
Turner
Index
Line
##apes
triumph
ho
Orange
Conservatives
##asks
Bradley
murdered
tail
outd
Front
##aved
##iques
lifetime
visual
Change
roof
guitar
wheat
shoes
Carib
cream
Keith
##math
storage
tanks
updated
praise
Malaysia
Sometimes
feared
inspiration
kiss
comeb
Midd
Resp
Mick
soil
modest
Oliver
Death
Vin
Westminster
##ateful
Speaker
Kardash
compon
defined
##aro
quarters
Conc
##iability
cock
finishing
Sull
trigger
compromise
pledge
Cu
##osa
boom
downtown
##ixon
hook
Milan
surrounded
kinds
specialist
Spot
sear
argues
backlash
abst
Merc
methods
hopeful
ultimate
ru
conscious
formally
Reid
YORK
##onder
recommendations
List
##VE
blank
principle
weakness
personality
riot
crypt
channels
killings
##backs
deeper
##lay
##angel
liquid
Costa
hotels
Corpor
Silver
incent
NSA
advised
Storm
situations
alter
##addafi
monetary
viral
##bel
Joy
manip
1995
Villa
coron
sharply
Imm
secondary
##ito
##inated
luck
entertain
raw
##DAY
##arthy
##tle
bitter
##uther
mandate
Pence
CB
##ogs
Light
airlines
dish
Grant
Caribbean
Fle
Colin
##ansk
mask
Things
##abwe
Gard
Commer
worries
liked
Transport
gest
appeals
admits
appearing
emotion
##mel
unders
##olo
loves
romantic
Cher
##eps
Wel
##imbabwe
damaging
Rachel
fundra
Munich
occupied
##hess
warrant
routine
##Donald
Lavrov
raises
Barry
hopefully
##ishers
##GO
Modi
regulatory
preseason
WR
Swift
resume
delivering
blocking
##ettes
Na
cancelled
questioning
Auburn
flash
approached
noticed
##atican
##We
UA
consensus
islands
##ideshow
##ception
goalkeeper
plun
judgment
Colombia
repeat
oppose
##umbled
constitu
##Get
##orge
mystery
aspects
myster
Banks
##emon
##intend
sits
blocks
disappoint
##news
citizenship
overd
Emma
Everything
regret
aftermath
vocal
1992
predecess
Lanka
Country
genocide
arriving
travelling
Lanc
##anes
literature
Parker
##mans
##osexual
acquired
##ped
Tob
##ags
Bon
Rosen
Pear
movements
Dougl
Wenger
portfol
##jud
##ictions
Gray
decent
##hill
Chile
Vatican
##eston
Donb
treas
Zimbabwe
Brand
describing
undermin
##acon
Case
##anyahu
terr
##obally
surely
graduate
shed
collapsed
Anne
survival
branch
battery
speaker
##athon
##emies
treaty
Larry
crashed
19th
1991
worlds
magic
accurate
touched
engineering
struggles
Dak
McCarthy
undert
therapy
##bie
10th
spotlight
##rests
assists
renewable
Sullivan
trends
contributions
Fact
micro
Box
##thur
gym
meets
Tri
rand
presum
weird
Zucker
pig
##oln
##rical
Maur
comeback
##If
rushed
birds
terrif
Telegraph
rot
centers
unrest
Much
united
CR
restore
diagnosed
greenhouse
Myan
outbreak
Netanyahu
##ocaust
Susan
Continue
runner
91
interven
Later
Lor
##When
qualified
##ingu
involves
barrels
Hy
deemed
overcome
##zing
filing
##jo
Stu
Cre
foods
irre
##mons
Athlet
Raf
portray
##eases
tension
Harvard
explanation
buried
eager
##yang
reverse
curb
##cribe
##ahoo
frame
wanting
tempor
##aturally
explicit
ensuring
Myanmar
legislative
sponsored
centres
##ienn
migration
##attered
##iciary
dil
Lisa
sessions
heritage
##ricts
valid
##kle
Rodrig
employed
130
##izon
Charlotte
##idd
climbed
##NG
dramatically
Until
Jama
##hand
Croat
counterpart
##eria
cooking
Tigers
trophy
metres
Seah
tape
Saint
##leton
Bureau
Pass
##zy
##ifications
moderate
##ture
Panthers
contacted
##igious
DO
Rest
mini
##NC
##prise
computers
Bright
releg
refusing
addiction
shelling
##usting
suburb
##ullah
##Post
yen
spaces
Thunder
conservatives
wildlife
##ycle
examples
##oons
tourist
Traff
photographer
Ravens
sporting
impacts
universe
hunt
persist
Protection
##asty
slipped
escalation
##unction
electoral
newslet
Billy
knocked
mock
strongest
telephone
celebrates
spectacular
##inating
letting
elderly
hyd
portion
Cas
##king
##ifies
Till
##uine
##through
casualties
crowds
indicate
##wick
Linc
evacuation
detain
Fernand
greet
oldest
##ESS
Dame
##once
Pakistani
desert
alar
Denmark
##ounding
interim
Kings
sovereignty
dubbed
Bristol
buzz
visible
definition
enjoying
clashes
vaccine
addressing
##arre
##oenix
associate
timing
interior
experim
ski
##orld
neur
Hind
##abis
revealing
execution
traveling
##ylan
manif
##40
##liest
unity
Davies
##Me
##icon
##actions
diplomacy
Seahawks
shall
##borough
##berry
##active
gear
Commonwealth
pill
Blues
Secret
Stanford
##ublin
gent
searching
##atherine
##aughters
revol
Marcus
burst
Dean
Alb
closest
undermine
rebuild
##acter
Oakland
cruel
anonymity
recall
drinks
trials
occur
##ardy
consent
acted
##rane
theater
##ji
artific
submitted
briefly
Emmanuel
Shel
##dash
bip
organised
lad
screening
doubled
Iron
Finance
intimid
generate
Luk
investigated
novels
robust
Start
Abram
rolling
##fare
unfold
##obi
meaningful
Thr
motivated
thirds
##iture
##ropolitan
Coalition
refere
impressed
##erm
offshore
Against
butter
workplace
Bra
screens
teenage
aer
detect
Hait
adaptation
##There
Cinc
Gaddafi
immigrant
ninth
barg
tracking
Poll
lect
download
achievement
seekers
duo
hire
Edwards
stone
Nar
anymore
CC
##Sh
Margaret
peers
meal
cow
##celand
arrests
##innati
##imited
Emp
temporarily
proceedings
##pin
##News
solidarity
hanging
Senior
jets
Seven
Pers
Phoenix
fitness
genuine
Ug
##col
assume
friendship
Douglas
thorough
flooding
McM
Julian
highs
inch
depos
Anti
##DS
appreciate
chip
machines
Being
stir
Holocaust
1960s
##oko
##omed
Oscars
##ques
auster
##itorial
proportion
gamb
##mir
Prop
burden
Snowden
alien
centuries
Ashley
Hampshire
reop
##hner
default
Fisher
£8
##oa
##isk
lifestyle
##obs
util
earning
Gay
##iac
Pelosi
Dublin
NOT
##cia
annex
residential
##bery
orchest
signature
nervous
qualify
austerity
Aw
absolute
efficient
powered
Lincoln
consideration
negotiate
biz
pride
amendment
Email
cheaper
##fers
Revolution
imprison
Phillips
trafficking
silent
dreams
authen
dat
watchdog
impression
Technology
##nesty
profound
earthquake
anch
licens
Woman
inner
negotiating
careful
Garden
Ronaldo
removal
##iah
recognised
##wing
Rice
Bengals
filming
Nig
opinions
Nato
snap
##oly
ori
subsequent
Powell
##upid
principal
Johnny
physically
##iband
turb
respected
grave
##ancou
Constitution
##sky
dominant
teens
thick
cong
Rex
beloved
Kam
Hans
decor
Lebanon
Barn
ce
##How
promoted
accompanied
broadcaster
Know
Titans
##ules
rumors
recognise
##ctions
Iceland
les
Jessica
##etta
Mom
##ICK
##16
comedian
TD
1989
Ebola
Raiders
Cincinnati
plea
##15
Campaign
external
##oppers
Hitler
##oil
NEWS
passage
Ster
commissioner
Benj
isolated
Gas
##izer
Prosecut
##ighed
studying
smugg
Han
telec
pink
linebacker
Officer
reflects
##ancouver
lists
copies
Knight
criminals
Build
Puerto
Blake
landmark
attractive
tired
Downing
##okovic
introduction
inequality
commodity
urge
##idal
pupils
fame
disabled
GB
Unlike
##elihood
##aching
classified
publish
educational
strategist
AFC
Hills
Mas
thousand
nominations
Buffalo
stopping
##wart
diseases
Jerry
categories
Crow
##inson
underground
##stock
walks
bump
smooth
Shakes
Authorities
##anye
realized
dust
lineup
Carlos
empower
globally
Born
##ressing
##uru
prompting
visa
McConnell
Heath
##icked
Summer
segment
enthusi
judicial
license
Son
sid
Song
rapper
supporter
inappropriate
trips
Emirates
##uez
##irm
##egu
creates
##inter
##ATCH
overh
beef
eggs
##encer
nights
tremendous
rated
conflicts
##ighters
Southampton
Vancouver
regulators
institution
routes
procedures
##rition
Lynch
##rained
actively
Wy
insult
GP
grateful
Miliband
threaten
roots
suprem
discount
overturn
commentary
swimming
notion
ML
Heart
engaging
fi
developers
##igate
dim
Convention
objects
conservation
painful
Kardashian
TSX
Orig
ignore
##inction
##orial
autonom
facilit
Seb
Rs
##ulpt
Kaz
##yer
##pear
##anded
demonstrate
advocate
##oning
sequel
NO
CS
Broadway
##estone
##ei
strip
embrace
Money
sweeping
legendary
WE
transportation
Page
publisher
lobb
corrid
ankle
Djokovic
Fel
Austria
hub
pending
divid
rolled
##km
sufficient
##amework
gam
Hughes
Jake
DJ
spreading
##mouth
golden
delays
purposes
Stuart
##cedes
##anchez
Todd
Pap
1993
demonstrations
phenomen
dign
##vation
Zuckerberg
god
frustration
connections
##ellers
violated
Amendment
knife
parade
##aco
bankrupt
substance
fishing
dancing
Philippines
##What
studied
universal
Ult
Valent
polling
Prov
##umm
cheese
flew
abused
NYSE
##feld
Partners
displaced
chocolate
everyday
IR
medals
scholars
Thous
Juan
offseason
Benjamin
##aven
athlete
Joh
anthem
##anim
fierce
##ILE
##Link
Alliance
900
guaranteed
brown
epid
Charg
Easter
disgr
Nash
Travel
Cair
repair
Stra
Updated
Jar
Championships
Nord
##pled
fires
chapter
Lenn
exha
##ozen
Buch
stops
plain
reserve
responding
Dylan
researcher
practical
WHO
guards
##hum
Final
Nothing
files
CA
exclus
demonstrated
subjects
##reement
Sanchez
Alf
Bird
##ken
##ipper
##agger
determination
witnessed
creator
beliefs
balls
##cont
reviewed
indict
Mobile
sacked
bonus
Tunis
Around
rankings
##izza
frustrated
transparency
Rooney
Ward
sons
shell
Girls
audio
Shakespear
McL
##aba
Nico
##aus
regarded
Ambassador
REL
YOU
poses
frozen
System
##bec
##overed
bunch
tougher
Bagh
slammed
warn
Wallace
##ozone
Kas
Morrison
Barcl
Lucas
Nancy
explaining
bron
Yahoo
Age
traders
Put
Marshall
transm
Om
flee
Lion
Universal
Lane
##iola
contrad
portfolio
##top
hiring
##Tw
##mund
veto
procedure
versions
##ACK
##isp
districts
battles
Move
Hond
lyr
##gets
##wear
forecasts
parking
##esome
evolution
holidays
Da
Bernard
frequent
Lev
diver
demonstration
##isms
PL
daughters
caut
Obviously
Galaxy
unch
cruise
##wall
boycott
Ext
##ortions
##xy
implemented
explosive
trains
uncomfort
auto
Tiger
Mercedes
##raf
Nevada
windows
projected
chest
Hend
Rubio
Romania
Horn
exists
Kanye
retailer
##itement
Bark
##cu
declaration
Swansea
##enh
button
physic
arrives
##rep
Nadal
Bart
regulator
##immer
EST
genre
##iche
Rather
migrant
psychological
purchases
riding
Redskins
##ITY
Living
drought
crop
Reed
preventing
III
fet
simpl
##mun
optimistic
phrase
Pul
Louisiana
dealt
cler
Avenue
Alaska
ec
##arez
##iang
Along
Environmental
phenomenon
Left
refuse
Butler
capabilities
##urring
Cox
prest
##writer
surr
##organ
occasions
##iminary
convince
delegation
militant
Princess
brows
Lear
desp
panic
duties
hed
financing
consol
##You
autumn
##ecurity
Islands
reflected
nationals
##udeau
ECB
recyc
Oliv
skill
pione
deserves
Ahmed
banning
Foster
observed
grain
memorial
jew
Standard
shake
039
sentences
Federer
##uro
Would
retain
initiatives
Masters
filmed
hunting
troubled
bottle
##ranean
liv
Slam
fuels
painted
preferred
##ouses
teenagers
Mario
responses
naked
##ationally
om
##utnik
perceived
Trip
##giving
##bow
##orted
Control
##parts
Stanley
indication
PHOTO
bizarre
Bennett
loose
investing
depending
Yesterday
##CO
drones
Toy
Sergei
burned
##utt
##theless
hunger
FTSE
inevitable
Mach
infam
circle
##opolit
Rou
nod
format
smile
scrap
presents
##oga
##bul
manifest
enact
SA
Nap
##rayed
Brun
subsc
sheet
Cust
Khark
Baghd
hearts
##oded
£10
musicians
Portland
overlook
##18
sed
Finland
Fitz
manufacturers
artistic
shortage
airst
##outheast
attached
Kurdish
Bryant
##One
bedroom
discour
##New
lengthy
Obser
efficiency
attorneys
menu
Brooks
##illery
stead
sleeping
Libyan
##gor
##hr
programmes
prevented
commitments
Nearly
breakthrough
Captain
helicopter
sculpt
currencies
difficulties
whistle
##DI
underway
counterparts
##ippers
##zb
discrimin
Analyst
utter
forgotten
##gged
teammates
Harrison
alarm
##rising
Liam
##hot
overhaul
Wi
merc
postp
Rah
Sev
##resh
prel
breakfast
loving
adventure
disruption
staged
separatist
##endar
Eight
foul
atroc
colleague
Rugby
rehab
Garcia
aired
math
inches
Chuck
stupid
Master
##cot
##sa
##eness
resource
##afe
abd
Trudeau
chronic
compelling
youngest
massacre
Mull
salt
Ga
Lock
Claud
immin
##14
warns
battling
HE
wrest
Imp
suspicion
conventional
polar
aide
recre
innovative
defe
hiding
Beckham
##SP
pharm
drunk
etc
carpet
interference
##father
genetic
neighbouring
Moroc
gaining
reader
bronze
##ante
justify
##Last
Stars
##mont
Isa
##child
Guy
Ry
##rint
Meghan
clinical
##piece
sole
##ses
##ucc
##erning
##isely
##ampa
Alexand
##achelor
Studies
depends
operator
containing
releasing
modified
anonymous
HuffPost
Dod
donors
coastal
lesson
removing
cycling
Election
Expl
ridiculous
Dakota
buck
hostile
doping
parks
##obb
Inn
separatists
Goldman
transactions
diesel
installed
description
flags
##ibl
Say
##issa
km
BM
##icism
answered
firef
Sor
approve
Pa
grid
Ill
slideshow
intrig
aspect
recipe
Wire
##afort
purchased
Could
##undreds
Carson
Harper
participating
##heastern
protections
bullying
retreat
Mountain
takeover
bullet
stepping
##ieber
Twenty
podcast
notably
adequ
bans
Vikings
steep
##essing
instrum
architecture
noise
portrait
casting
##power
##App
choosing
##iary
Kharkiv
taxpayers
fool
playback
wreck
techniques
Metro
##SO
##TION
scared
victories
workforce
Barbara
Prix
Bannon
sued
biological
PD
sophistic
groc
rend
Bayern
artificial
Gates
Bald
POL
Sterling
weighed
credits
HS
fold
chains
cannabis
deterior
cinema
##lu
190
assembly
acceler
Shakespeare
##embley
recon
annually
##ecticut
gh
Ole
Hunter
opposing
RT
##abbing
##holder
patri
congrat
Critics
vacation
Singh
shaped
Gabri
considerable
##ieties
starred
Eddie
Mediter
unanim
uncomfortable
Cass
topics
Ta
abuses
Wembley
campaigners
intellectual
Luck
meals
assured
Nazis
topped
chamber
operated
hackers
moreThe
Person
Manafort
closure
Crist
catal
Reilly
Bills
iPad
Almost
cope
Kane
corporations
Connecticut
skept
Kos
Laden
triple
ingredients
experiencing
Sure
spiritual
random
Neb
Notting
Mohamed
None
Lov
leak
11th
gonna
unle
Pere
Station
bloody
##OST
avoided
Support
acknowledge
##aida
underc
Brid
pron
bailout
##oria
Glenn
occupation
mun
Mey
suggestion
##eor
##GE
sne
##de
Brandon
Rat
##dam
Arkansas
350
##tery
Forces
businessman
Arthur
reliable
framework
CP
Thousands
##asted
agriculture
lasting
##wind
##odox
Wiki
Sheriff
Crystal
##kward
##leep
##anning
presidents
theaters
affecting
rif
Ahmad
raped
notable
reiterated
jokes
maintaining
disturbing
feminist
accountable
acquisition
Gat
Gareth
invaded
Uk
Geneva
declare
diplomat
geopolit
Sunder
SU
##avery
EX
nort
##itudes
insight
spac
Fans
Set
peer
##uri
mounting
invested
##IES
##achment
advent
##bes
holes
prote
Rap
Bes
weaker
populations
swept
toil
Mediterranean
Rogers
customs
ty
giants
Gallery
RELATED
Sach
campaigning
##run
eleph
clim
requiring
##utton
Nigel
backd
observers
##western
snaps
newsletter
successor
##ouch
Rail
emerge
brave
accomplish
##itched
Vo
speakers
stating
Omar
resil
singles
##aware
popul
pressures
##Leaks
##ocated
Kirk
Bund
##ovak
##breaking
Modern
##opes
nowhere
##ells
reserved
gunman
breath
Shah
##oard
elabor
horrific
##po
acceptable
Indianapolis
datab
automatically
preliminary
Beyonce
hailed
unh
lesb
starter
marry
jihad
scram
divers
##mother
accepting
scope
tons
villages
cheer
unnecess
Thatcher
##aux
deliberately
DV
finale
advocacy
##ecraft
##ouring
twist
Representatives
Blood
Sunderland
##amy
disappeared
safely
reception
dependent
Gonz
furn
disappointment
##itionally
preparation
adap
flour
demonstrators
Tax
##bits
drives
Ric
Coach
Kend
barriers
nominees
evident
extrad
bipart
##held
stere
##CA
pressed
##LD
Wonder
preserve
authentic
##rahim
##atri
advertis
bother
##ubble
Ja
##information
dirty
expenses
Think
addresses
absor
lending
##ffield
Petro
pocket
Investig
Falcons
##keep
##eneath
Nathan
##opez
Assange
140
periods
Scroll
gal
Reagan
suppliers
Ald
reminder
branded
displayed
##ecca
##earchers
revelations
##itr
prosper
examine
##don
Spencer
overtime
##urches
##emor
SO
Weekly
wet
exploring
handled
dump
erupted
statue
obsc
nonpro
imminent
bosses
##IE
##ethe
##IDS
shipping
correspondent
Budd
Kr
Ped
##25
bias
offset
expense
##With
memoir
infection
careers
enemies
##abetes
Tyler
Non
##ongyang
##weg
##LY
yuan
##lie
mutual
##13
##itty
Jagu
mere
Hud
LGBTQ
subsequently
attendance
Clear
Formula
GR
threatens
Bolton
Got
##onies
patterns
tower
Jenkins
dynamic
tune
operators
Sound
##rome
graphic
Jin
releases
Find
Point
Rico
fract
emotions
chemicals
accessible
##uctive
##irus
##zh
Franklin
##right
tackles
understands
##arc
Fashion
##iership
110
##ogy
remembered
##At
plate
Doug
##strong
##lee
##She
Emily
charging
##aza
stroke
appet
deciding
Prior
naturally
robot
##uably
concerning
Kid
credible
18th
penn
charities
toss
replacing
signals
Zh
Smart
Brett
lined
##stanbul
wrapped
Semit
importantly
##iffe
##eway
Drag
volunteer
fabric
Hey
Telev
passionate
##aults
Inside
dire
outfit
UAE
Band
stereotyp
Haz
##umbling
Hammond
mo
##While
Library
##vals
##VP
Pyongyang
shootings
intr
##TR
##uates
tob
Metropolitan
extract
WikiLeaks
NH
agricultural
comply
easing
##urse
Et
##uating
schem
Congo
AI
Based
viewing
##opa
sin
ax
pressing
nose
objective
gro
arrangements
pub
bats
mode
carrier
Marco
##AB
iOS
firmly
##daq
Oz
Huffington
glad
Parent
##uv
Dmit
heels
##acies
romance
mol
structures
requirement
##brook
stark
thrilled
NE
economics
rallied
exclusively
economists
True
awkward
##abul
##ega
differently
Ele
Cannes
##azi
retal
confrontation
fing
##After
##low
Istanbul
midnight
LSU
##prom
dimin
##amo
CON
predecessor
Observer
surprisingly
##face
courses
conducting
drilling
Holy
unbeat
isolation
mirror
Hundreds
##bank
eliminate
affects
Sheffield
competitors
Future
##UC
##lon
Sark
##iox
evacuated
##KE
Schumer
awful
incorpor
RB
##oline
divide
Published
strategies
Muham
sorts
Ferrari
tables
alumin
Tol
arguably
Communist
Scientists
albums
Luis
##mare
credibility
Nasdaq
inmates
resolved
##Russia
Lin
Members
Curry
OPEC
copyright
Qaida
ratio
##ls
Cairo
##ATION
reprod
excuse
##colm
##ught
confusion
Brien
##enson
Corporation
Griffin
extremist
Late
Century
Croatia
sisters
Want
Finn
deserved
Rud
disg
Border
Pete
commented
NFC
aides
##li
colleg
safegu
shield
Montreal
devastated
##ollah
Lopez
escaped
locals
commissioned
programming
Soph
hugely
opted
Budget
traditionally
##iors
Stop
Data
lyrics
ug
Drug
realise
fails
Pas
Barclays
Fat
Motor
Duncan
slip
Grace
Clem
pursuing
Somalia
clinic
Hass
Bros
calendar
##24
envoy
##hett
##Ex
##mith
Trev
poster
homosexual
publishers
##bus
##otes
£9
Kath
##nered
improvements
bases
forum
Po
Main
transferred
destro
Silicon
##MP
gaming
excitement
implementation
##imedia
ICC
alike
Confed
bipartisan
Mug
##sein
slide
Palmer
priorities
Jenner
##80
pursuit
appealed
regist
hors
underlying
Quest
tobacco
trio
neighboring
BO
##oda
guarantees
##orse
endang
Brighton
famously
academ
wishes
privately
Kay
ecl
operates
bust
neighbors
borrowing
damages
presentation
pays
misle
prayers
frank
nationalist
Students
fleet
courtesy
doubts
organic
Ont
Natural
##omo
##bull
voiced
Globe
schemes
##opical
Owen
Congressional
parall
Third
Tur
180
lows
##PM
Reporter
Joshua
musician
fascinating
Thai
##quis
Duc
sized
representation
##alymp
lethal
Chad
Deep
Memorial
refusal
##GH
Palin
flowers
advisers
trucks
offs
commodities
##arn
Armstrong
paintings
Sadd
focuses
##iggins
stakes
internationally
##atoes
preview
Interior
compass
imposing
mysterious
Clegg
relie
Neither
shortages
blown
##ftime
Analysts
subscrib
territorial
separated
donated
Assist
Ing
territories
Sebast
suggestions
Malcolm
Investors
Wells
Eve
grav
1980
infamous
Hur
##erbai
##ervations
Tampa
automatic
Rodriguez
Trafford
Magic
MI
entrepreneurs
Serbia
##hic
FILE
beneath
wondering
Finally
finances
converted
slavery
Chall
Heat
##gun
consultation
restricted
boosted
thriller
Blink
Nottingham
Leonard
sacrif
departments
##ancers
##MS
boxes
Irving
Soon
Viol
synd
endorsed
##raham
residence
Caval
lapt
referee
Safety
documented
##ITH
poetry
Cuban
privilege
executed
airports
recovering
drum
declaring
##ographer
quote
mart
##FF
bears
worthy
##moil
freeze
crops
absurd
influenced
##ripp
Nigerian
outlet
Father
Nobody
Diana
joins
consultant
Similar
##loaded
##archy
Exclusive
processes
severely
Stein
Wals
Manuel
vigil
cous
Diamond
##awi
applic
Baby
disclosed
pleasure
shirts
##iots
marine
supermarket
Athens
##kh
Chargers
merch
##comes
heroes
bathroom
rescued
fel
provoc
1986
cake
mild
cautious
Joel
enhance
Cover
declining
tu
absent
##GM
shooter
exploration
relation
vary
Pomp
##brid
##NS
passport
Fame
Round
travelled
treating
Queensland
persons
##TC
meters
outdoor
traveled
approaches
Insp
Norweg
##aria
hurricane
Thanksgiving
##inos
Commerce
minded
throws
quarterly
##onso
neighbours
entrance
##LC
##esity
escalating
##uces
delegates
Paralymp
Bashar
bilateral
engineer
Rain
Azerbai
##En
Political
Lloyd
##heimer
Castle
Martine
disputed
Hugh
ambitions
wip
##leum
spectrum
Hull
hes
1984
surged
epidemic
Television
Ethiopia
Muhammad
hammer
vent
mosque
wicket
tum
##ahl
processing
Forum
##aunch
Julia
Access
Oc
invade
pricing
tenure
Design
juris
Liz
##iggs
artillery
##nity
Grow
Kel
sophisticated
belt
undersc
boats
Looking
Bailey
geopolitical
Carr
Small
diamond
rhy
turmoil
theft
##onde
Securities
Mort
Early
##omic
lav
revenge
tatt
quietly
Simpson
GO
Empire
drafted
##gio
##ousing
##ossip
Nicolas
Jared
PHOTOS
Researchers
poised
Relations
notorious
glam
Within
gard
##lington
##acles
quotes
Battle
lap
supportive
puzz
copper
Rivers
Alger
##addy
Adrian
Bryan
suspend
1988
Shi
bout
offences
##FA
advances
Mall
Russias
teeth
Tesco
infected
cycl
Messi
Mans
##unity
indicates
fights
##very
1979
realistic
marking
Cou
##eff
championships
stimulus
harmful
grabbed
AB
Mason
Area
Half
hatred
##70
safer
##achers
mit
##ulent
Danish
Ice
denying
eurozone
Karen
Kyl
gre
desperately
Rup
considers
lasted
defenders
fright
##Reuters
Indians
Yan
Overall
classroom
admission
checked
reluctant
##DonaldTrump
Hem
aboard
edged
##bucks
##TI
willingness
treatments
##thodox
inbox
precious
devoted
samples
Daw
tempt
Madison
##ernick
restrain
Kash
##00m
##ultane
Fant
Thrones
slot
Sep
operational
Magazine
##adh
offence
defl
Pru
item
Sandy
Liberty
tier
ok
bulk
##mph
midter
exercises
##ilst
##eton
gambling
Circuit
TODAY
wickets
Experts
dispar
Brew
unbeaten
Baghdad
millenn
voc
fertil
intimate
realDonaldTrump
Chase
diabetes
assumed
Kur
outp
superb
Stories
optimism
convoy
Champ
securing
worrying
subsidies
hearings
Ivan
sample
ethics
ghost
##hall
Bobby
substitute
Sin
##omy
difficulty
bombard
Markets
dressing
churches
Ca
##iege
desktop
##billion
fines
jazz
contributing
Tillerson
realised
inclusion
insisting
##rikes
Happy
##atched
emphasis
matchup
Armen
acceptance
##INE
employer
HERE
##aments
THIS
designs
Rw
mates
backst
technique
##guard
aviation
conceded
soaring
developer
Sac
Brend
Military
spill
EDT
denial
televised
##urge
filmmaker
Bear
Belgian
permit
generous
Daniels
shy
councils
McN
depri
catching
buses
resum
confused
embarrassing
Fight
logo
aiming
lovely
freshman
examined
successive
horrible
obligations
draws
worn
Rohing
lung
contrary
##iasm
##tenance
##IGHT
oun
##otton
##ailing
Whats
mobil
Ful
160
plag
Nine
pope
indigenous
Lith
measured
BL
dictator
TE
Mind
##ortunate
Ve
##ozy
Darren
##ieg
##icul
revised
Helen
Haiti
greatly
topp
Core
Less
breakdown
Gaga
Connor
extremists
lun
presenter
haul
Wade
##ignment
Si
Wang
significance
Marie
enroll
Schol
Using
mandatory
Amnesty
prestigious
##epernick
##ensively
##iri
halftime
Homeland
empire
Kil
mountains
Katie
interrog
hij
##oints
sail
##RI
##abad
memorable
Shaw
historically
##onymous
assaulted
Aber
##erek
##mart
educated
Durant
Saddam
Sah
countless
gentle
shoppers
##ige
donation
lets
olig
cartoon
Cand
cancel
nerve
debates
sket
##illo
mdash
tex
waited
cosm
Norwegian
Whatever
vegetables
##essa
##una
loaded
forthcoming
digit
orange
##uz
Bed
invitation
melt
negl
canceled
Too
Greens
##ometown
smartphones
corrupt
stabil
accounting
licence
Between
communicate
##itcoin
altogether
lifting
cornerback
philosophy
violating
reminded
ugly
Martinez
zones
bottles
Dian
##23
##ovo
helpful
##Cl
minorities
Bible
Alice
##ulu
brew
fundament
Seoul
trauma
traum
##aku
cops
F1
TM
WATCH
##ND
##mm
##ANS
Mumb
Samuel
Spotify
ambition
aston
transformed
Rash
##60
nonprofit
relent
transit
instant
Stevens
Florence
fict
Place
intends
Tar
##uten
gradually
Starbucks
##ellar
celebrations
Pruitt
themes
##kraine
Nort
grip
stripped
priced
similarly
Australians
dragged
##iliated
Belf
moder
arbit
Melania
Kaepernick
slowing
Newton
##icating
Aston
NSW
##More
Farage
psychiat
Antar
Bou
sou
hikes
messaging
Bishop
##ORT
Embassy
exhibit
boards
bacter
##NBC
marginal
Tonight
tackling
valued
Dri
submit
##iott
##uity
Blinken
Damasc
##utical
Chan
costly
Studios
Ul
Hodg
commerce
indictment
Gro
debris
Buy
Ivanka
rallies
decisive
12th
Creat
luc
backdrop
seeds
##via
Mitch
theories
los
editing
distributed
guided
feedback
Immigration
expertise
Pick
ts
margins
simultane
Pierre
boxing
excessive
relating
expressing
Resources
animated
Cavaliers
Player
rever
##unct
##rington
respondents
Grey
outcomes
Veter
##nia
##eches
prayer
competitions
Shell
acclaimed
Kle
##rogen
wrongdo
Donbas
compliance
cigarettes
Simmons
exceptional
rational
##arms
THAT
reacted
Booker
##othy
unfortunately
Break
nu
indef
Damascus
##unal
hyper
WWE
PAR
committing
Salv
bands
Castro
gifts
inspire
##space
Tribune
##ateur
Moreover
##front
Dems
catastrophic
crying
Walter
##SC
unfortunate
hungry
Lag
Treat
Beh
radar
##etheless
Mend
##ori
unnecessary
##asse
rice
antib
dated
##hedral
formerly
Fro
barr
WW
travelers
##ementia
sends
accommodation
intellig
##AST
Gw
bure
deployment
advers
compare
defendants
Europa
bone
##astics
bare
clever
exempt
Premiership
cave
happiness
Citiz
diox
introducing
extending
Mirror
cocaine
##ourg
unpr
Armed
Porter
Bitcoin
provisions
##hop
Workers
Medicaid
hasht
Save
punch
renowned
define
fined
disability
sauce
dual
##WEET
##cription
##mid
##auk
rumours
DVD
adoption
betting
languages
Summit
Anyone
Stream
##ettel
honored
venues
maintenance
dangers
rebound
Deal
missions
Britons
counties
##erman
pupp
Boys
##bled
Leave
Moy
endorsement
astronaut
##ml
Cape
Nixon
surpass
partisan
Christine
Dmitry
appealing
blasted
Stef
##avirus
lawsuits
Dennis
tang
disagree
Karl
genius
dispos
2030
Agric
wise
voluntary
##airy
mainland
Latest
Ibrahim
offenders
Chern
folk
complain
vit
secrets
##PP
productive
touching
grandmother
stom
opera
Shutter
Vincent
perception
MAR
destinations
Copy
superstar
afterwards
Rolling
##astrous
Mumbai
##Sp
gut
##dit
contacts
approaching
haz
scary
##Il
Rush
##usk
checking
##loe
##ambers
vessel
G20
winger
##ingham
echoed
Sale
incumb
cab
dignity
database
Fla
Days
ward
divisions
Maj
dece
Hispan
LE
fortune
minim
##ocking
intensity
Native
##ista
cockt
kicks
intentions
compassion
filling
Beast
Occ
theor
Derek
locker
##iga
exchanges
Doll
##lav
Adds
reactions
Perez
shifting
##reshold
assemb
Planned
##rawn
Pod
restored
##inea
Cambod
spare
##state
Organisation
##aceutical
##alg
Jeffrey
Mitt
lev
buff
Base
Ru
obesity
taxpayer
unlaw
Ern
Burns
twin
##pa
disastrous
##uay
Lennon
sentencing
nickn
Abdul
impe
Kenny
Kids
protesting
confidential
kicking
furious
Cab
AIDS
Bradford
supreme
Notre
hardware
##aman
##ierra
discipline
beaches
partially
upgrade
colonial
inauguration
dioxide
lenders
Silva
Lang
collecting
1950s
Moss
Sebastian
deportation
Sent
Prosecutors
misleading
pole
Uganda
bankruptcy
hometown
##grade
##Mr
halted
##viv
##FO
amend
nightmare
Sha
crowded
appetite
Tro
relegation
##Bl
precisely
charts
supposedly
tablet
Grammy
Guardiola
prolong
##Un
Tan
farms
Hussein
lesbian
editors
oligarch
Rohingya
Remember
enforce
Chamber
Employ
##esa
backup
125
Draft
Currently
disclosure
##emouth
13th
##iper
circuit
reinfor
fence
Haram
lon
##IST
Serena
sacks
storms
destroying
##eta
colleges
joked
##mal
chips
Store
balanced
stomach
plunged
enthusiasm
summ
Holmes
Very
Brom
wrongdoing
attributed
booked
Ottawa
##anches
shifted
entities
murders
posit
testified
habits
neo
wors
##perform
Ki
distingu
WITH
governance
1982
Stoke
grey
##tha
Mul
##err
performers
Len
Slovak
engines
persuade
Investment
lobbying
occasionally
Luh
##ocum
avoiding
Pad
Parenthood
Led
##First
Walsh
##usc
jumping
dining
Ontario
Turnbull
##PD
Refuge
##quer
##icting
applaud
consolid
Tommy
commemor
80s
##isdom
stunned
donate
authorized
Fu
haun
TWEET
Past
disclose
##cosystem
Valentine
BT
Match
affil
photography
##inely
detainees
2nd
##ener
##olved
imagination
Belfast
organizers
##attled
neighbourhood
catches
sooner
helm
Weather
resemb
Alt
supplier
threshold
formula
outright
wound
troll
Try
array
rewr
infections
##bot
Agreement
Jaguars
founding
suspicious
entrepreneur
superher
allegation
1st
Salman
ambul
hedge
commonly
boundaries
mamm
Criminal
Xin
Legal
Pink
subjected
Fem
##kiy
Clemson
MTV
##lint
equipped
Brits
HD
##bling
fundraising
##TE
Francois
##auer
Yeah
barred
Lauren
printed
Bahrain
atrocities
BY
landl
##yard
encry
slowdown
volumes
Fun
bureauc
Cosby
satisfied
volatile
Perform
##conn
jacket
Gibson
Join
poorest
Baldwin
Tib
Bachelor
startup
flows
ultra
Robertson
Writing
accountability
Nicole
inspiring
sealed
ports
Ecu
uphold
##ancies
##aunder
cher
minimal
load
Hudson
##erie
placing
publicity
##IO
convinc
kilometers
ethical
##gence
speeches
Heritage
apologized
Julie
leaning
##ocus
lod
Dear
1987
dear
produces
Reports
sexuality
Beyond
participated
Buzz
NGO
volatility
Fein
17th
Palm
##ructive
academy
sher
Total
mechanism
Room
cats
Aid
pensions
piv
imported
##regor
outlined
Inv
butt
##aying
petrol
compound
Years
Note
Richardson
meg
##grad
90s
quarterbacks
achieving
##UST
Shutterstock
Ko
adj
Tat
whenever
arena
hardest
climbing
nons
tolerance
sheer
Elliott
Books
impacted
blew
Andrea
flagship
reviewing
Vettel
designers
newest
Communications
esp
##tershire
receives
##EY
Cut
transformation
##erving
oversight
Must
arrangement
Building
##oves
Flash
sells
orbit
Tell
postseason
Hyd
makeup
heated
Brothers
Brendan
Jinping
##enter
Planet
ol
##ventus
thanked
admin
##CI
portrayed
criteria
condemnation
Monetary
dividend
Carn
heroin
budgets
rhyth
##visor
##rac
subscribers
barrier
trusted
abol
Bened
vessels
##ienna
ACL
##prop
agrees
##say
alternatives
OS
institutional
Peterson
appropri
foster
pilots
##iani
grace
input
solely
Hig
runners
Together
disputes
Wag
##ocumented
stranded
endangered
Claire
exped
evacuate
tense
Sussex
Bowie
ACC
opio
annoy
richest
##ouncing
averaged
Neill
Movement
priest
Nature
Cyr
Cricket
TWEETLink
pact
dishes
cripp
stalled
Snap
##idi
Catherine
##listed
##asive
Drew
bubble
##rics
##emark
##andals
##hard
advisory
eleg
##ournemouth
apologize
Rebecca
Rupert
Nike
terminals
Imag
##irmed
ash
##orable
ecosystem
drops
matched
Copyright
toys
assassination
dementia
productivity
Event
Quinn
compr
Luhansk
MO
availability
sexy
Culture
Pav
athletic
unrel
partial
failures
Medicare
grim
IB
kingdom
Jazz
##osc
distant
queen
recruiting
AG
##EFA
##45
mentally
honey
Psych
Azerbaijan
Lost
Lux
##ppo
Fifa
##oir
1985
slump
prevention
designated
param
##oples
shark
Fast
feeding
Xbox
convert
##print
creep
##aires
Nicholas
##cker
hilar
tours
##ottest
mac
##lett
perf
Urban
fragile
##esville
slaughter
anchor
Norman
UCLA
##acey
Dawn
IOC
Vot
broadly
Actor
##ICE
Slo
Essex
olds
deleted
Operation
OR
##iki
launder
launches
starters
Petersburg
lovers
Emmy
##Go
airspace
denounced
columnist
embark
##anners
VID
##Sc
stagg
fo
##itably
##nolds
##dling
Compl
bombings
magnitude
Sachs
DA
Vander
jersey
shareholder
Sierra
immune
rib
superv
muscle
##intendo
Kus
sounded
##ahan
lip
prisons
ME
##BR
##Getty
attitudes
intensive
##enko
Trevor
##munition
engineers
Spr
Juventus
demol
Sochi
##believ
Nep
McIl
metals
distribut
109
Java
Pitt
##kinson
##bridge
miners
intend
humor
##ourt
sinc
##icipal
embraced
##chen
Everybody
Gav
railway
Morocco
impress
##ongh
##enberg
plaint
##rand
holders
um
FDA
Luther
##arding
farming
bearing
midst
Aviv
##van
siege
Bieber
##okers
##oyle
nationally
##owder
decides
101
certific
Fo
premature
Medicine
##ronics
airstrikes
keeper
diagnosis
broker
helicopters
jeop
##isb
wounds
Qual
Bi
entr
Batman
Records
prisoner
Dog
unhappy
##asm
critically
shore
abortions
Youth
fracking
##raska
Sunni
bic
inclusive
routinely
errors
##former
forests
##ocurr
14th
awesome
Making
seas
invite
orient
credited
Model
Leaders
acres
foreigners
dominate
Glass
administrative
ammunition
##omi
##anium
soared
Mali
Better
##uy
concentration
EM
##aky
agg
##zer
Heathrow
combine
Industry
Strip
viable
16th
Venice
showdown
undocumented
Rafael
VIDEO
brink
Stephan
Appar
recount
##REE
UPD
Additionally
Victorian
respective
Statistics
Lives
##inging
ceiling
patch
##turn
Roberto
Maduro
endless
prejud
##emma
Aleppo
Ellen
Nintendo
glory
Amanda
seal
essay
proving
##quir
sanctioned
Rockets
Ral
Coleman
##pat
breathing
achievements
##bing
explosions
surveyed
retaliation
abusive
responsibilities
##ishops
heightened
expose
fictional
awaiting
coronavirus
unnamed
serial
Franco
##coin
##oj
Clay
Mik
Drake
Courtesy
##irk
##hips
transparent
grants
Yank
Stre
header
Jesse
nurses
panels
##ONG
Prim
conclus
toy
unsu
##asha
pund
uprising
Kazakh
culmin
nurse
Mandela
reson
poorly
NYC
Side
lin
##ordable
laughing
peninsula
inning
##oubted
curious
SNP
##beit
Amid
##elta
superior
showcase
sponsors
dissent
Something
rup
Kashmir
Barr
Fried
acid
medication
##xon
enterprise
terrifying
likelihood
Reven
Hopefully
ousted
##uese
DR
Alexis
corporation
stabbed
evangel
Noah
fueled
reaches
ancest
Rudd
##asio
vibr
##ungle
admitting
Pep
intelligent
gate
clarity
pedest
Root
##inery
hockey
Charter
Shin
fallout
Bournemouth
sections
##USS
UEFA
Movie
horses
Ukip
##erable
warfare
insider
Wa
integration
##fty
tipped
depl
drain
submar
creativity
##fax
elaborate
spike
suits
##edict
Nebraska
completing
##adise
sake
negotiated
##ernandez
lucrative
##bishop
predictions
compiled
fer
Presidential
snapped
##Is
Histor
accomplished
Mahm
whis
Duchess
horm
ber
##ectors
Reynolds
Dw
Winds
fisher
TW
Dy
##ussion
##vious
##phis
registration
Forbes
##itated
kilometres
chase
exploded
robots
##anting
outsp
unchanged
Roth
##aston
##walk
inhab
feud
##ulty
Neg
Curt
Hague
Finals
##riages
Portuguese
Hollande
bug
factories
##otsp
##azed
merger
Mugabe
##ustain
grat
Caroline
##acht
recalls
##cribed
ballistic
Tunisia
##nan
##uer
banner
£20
thri
hacked
Herald
cub
##UD
inex
Need
Middles
Linda
Fig
##etically
rebell
doubles
Legisl
secular
labels
Pes
##kara
chairs
##ributes
pizza
CAR
cogn
utility
##cill
##ubar
sanction
WhatsApp
Bin
MC
Ellis
##aukee
MVP
##week
##unning
injust
Breaking
uncovered
TIM
##enge
15th
Mission
Gove
chore
##roft
Beatles
Boko
supplied
##thening
coordinated
limiting
##nell
justified
succeeded
##di
##orus
alarming
##ELL
Kick
bolster
forb
Sarkozy
blockb
##mat
besie
Frances
accounted
directing
eliminated
tunnel
Por
cargo
monster
aspir
tweeting
overth
Terror
##ported
Cancer
bitcoin
Fernando
wisdom
##opic
fits
##incial
gesture
##no
360
loyalty
contender
Consumer
1983
##olk
seize
freezing
Pin
networking
Kind
receivers
Emergency
Kem
broadband
Hernandez
Pool
Editor
Alz
HA
##arians
references
MA
##omers
5m
##Acc
##prising
revelation
disresp
preparations
sponsor
ye
##iffer
delivers
revival
ideology
##berger
020
ware
agreeing
Bent
ought
stays
BA
##waukee
riders
##isle
Spicer
MSNBC
##ski
grandfather
Memphis
browser
tiss
##END
refers
##otta
tightening
marathon
fingers
PGA
##ogen
donor
albeit
runway
intervene
Taking
subscription
riots
##iler
Airbus
permits
rh
##isi
##enhagen
Sergio
Beth
##ilation
Wigan
endured
pard
multimedia
##acerb
##ouds
turnout
greeted
examination
interceptions
##aha
Targ
charter
Guinea
##yt
motivation
Europeans
fitting
themed
Palestine
taxi
independently
##initely
Photos
boasts
trash
McIlroy
##ugs
##ITIC
Tate
rocks
freed
##cor
packages
accuse
Dom
##tures
crises
listing
Bever
Farm
carriers
Louisville
dip
inacc
Delta
##istically
formation
BB
Order
burg
Electric
furniture
##aste
breakaway
hottest
slowed
Shep
Says
straw
Gian
Nam
Watford
Viktor
Aj
nic
slated
Ecuador
conting
Manager
counted
autism
Ghana
counting
exacerb
Tourn
tropical
Benedict
hostage
frustrating
##AFTA
bio
confronted
##ushing
Klopp
weakened
Ax
displays
Majority
RO
conj
Milwaukee
privat
rockets
##NP
Eston
bones
tasks
Plat
podium
##lic
acquire
Magn
radiation
##ammar
maj
##CR
NA
Canadians
Gren
matching
amongst
indicating
risky
cleaning
spacecraft
Lords
transfers
Dim
establishing
Command
Lamar
##ordination
switched
flank
Va
classical
Jamaica
identifying
crews
Copenhagen
scorer
Cinem
accum
Ey
Pret
Durham
Bh
##adequ
Hopkins
leaks
binding
ineff
reply
##avez
teammate
bite
capped
fare
fals
Record
entertaining
financially
floating
Cris
Oval
Bale
1981
heavyweight
sidelines
##impse
##rup
##Best
applying
controlling
##pless
favourites
Mold
##ruguay
##oubtedly
blaming
debts
Berg
Hodgson
leverage
bomber
Hoff
Ruth
communist
unjust
Roma
Spir
dominance
recipes
hinted
vend
Wildlife
censorship
Monaco
mounted
precedent
##istical
disprop
overwhelmingly
gasoline
Eff
Salt
##ophobia
Barnes
na
189
Mult
dancers
presenting
flames
Peru
##storm
tablo
##oni
Alph
revolutionary
enabled
Players
bounce
Colbert
ALSO
semif
Logan
firefighters
surfaced
Flight
wholes
##acious
unbeliev
irresp
##agging
Fi
Chavez
dod
##inis
infant
eventual
VI
ALL
Activ
Casey
prepares
conclude
Gazprom
Flint
##ci
Hob
##string
contenders
glimpse
besieged
caption
OUT
tally
Pist
components
loses
Nevertheless
Gor
Progress
incomp
Pur
Burton
Besides
Orthodox
Kill
Gabriel
##acker
##fires
##armed
##ucci
##amped
##rot
Bach
##BER
Aqu
##ooting
dismant
Derby
pm
grocery
expectation
Dh
Gore
STOR
strang
settings
Joint
leap
##omer
##ushed
Tu
##mage
flooded
mud
maps
Wes
CDC
Few
Hallow
##din
MAN
sticking
encl
##feed
##olan
existed
Ze
Elon
Mohammad
Hat
incomes
Self
tonne
cryptocurr
NRA
dread
1967
##azeera
Golf
inadequ
##bi
Update
disproportion
Pix
overc
sadd
##All
115
Hannah
floods
exploit
##agne
screaming
##edi
horrif
Working
condemning
contention
Alonso
salaries
fever
recommendation
Sales
genes
Arnold
##ophobic
Dise
integrated
decrease
Sources
outrageous
disabilities
##Read
rejection
##issance
permanently
lover
accuracy
Dort
tong
Prom
##orate
##habi
confer
1968
autonomous
Nashville
lighting
Exxon
Sold
curricul
sack
transpl
attraction
Uruguay
##iciently
Temple
hashtag
Kurt
Socialist
##dem
Sputnik
Thus
sustainability
saves
averaging
Going
Abdullah
delicious
ram
incons
whereas
anth
##fish
##icity
Fear
ignor
Vienna
deliveries
MD
bell
##cano
##rawling
ripped
testify
cooperate
##endra
##ugged
##azines
bests
Carrie
relaxed
Alzheimer
symbolic
rans
Jobs
BC
bik
##maid
cafe
antibiot
##ohn
Tournament
Opera
##unami
settlements
Pun
ditch
Cort
chiefs
assisted
simultaneously
horn
Hell
##uinely
toilet
convincing
permitted
UFC
##ype
withdrew
Lucy
##ihanna
outspoken
Miche
escalate
Bulgar
locally
Month
grows
##ASS
posing
ballots
Classic
adapted
Compan
Bert
archae
sacrifice
staggering
Fury
recruitment
##overy
Hab
skilled
reflection
Offic
obsessed
Cauc
anxious
unse
McGregor
Houth
manufacturer
crunch
handing
##cliffe
70s
Cable
Israelis
grief
##alie
##sche
COM
marched
Peninsula
##ento
believing
dealers
##itches
Riy
Jacksonville
shelves
Certain
hill
repay
cement
lawmaker
highway
standoff
Kylie
spoil
withdrawn
fortun
troubles
##bilt
Seth
Airways
Surrey
component
analys
##prus
1970
hybrid
Jazeera
##asting
tribal
boots
pause
drills
destructive
##26
cov
unst
meteor
terminal
##uins
Zach
milestone
Fav
LP
##onnie
chasing
##ucted
adequate
Heb
predomin
Vermont
Kabul
##kes
Cyc
concessions
##ships
Warsaw
supremac
##insky
cyn
subtle
Topics
graduates
novelist
##owners
dictators
prince
Richards
legitim
boo
1973
naval
academics
Joyce
##ewell
confirms
inaugural
legislature
conclusions
clause
awaited
Dortmund
weighing
shifts
1975
adjusted
Bomb
capability
flexibility
Maine
flown
genuinely
##ovan
circles
Soccer
scandals
Abbas
shipments
##children
##nut
persistent
incumbent
leather
punished
Interest
Halloween
instances
Representative
##udge
ballet
boosting
##antan
iT
##zed
##Be
##arted
looming
wooden
gau
Engine
maintains
Nag
haw
downs
ignoring
buyer
Fish
unre
presumably
Shane
slim
Somers
Use
proclaimed
##vo
Celebrity
HM
105
protein
##atics
Sixers
##uda
apologised
Cyprus
CAP
Lamb
##len
Clean
##To
Sox
disasters
##matic
neighborhoods
manifesto
##ceans
##rina
LIVE
tide
patrol
obligation
thread
convey
USD
Ground
tuition
famed
prescription
astonishing
instructions
Evan
carn
utterly
curriculum
##alid
harvest
masc
Webb
clicking
Assistant
McLaren
Bath
Subs
rehe
##iments
bot
##Top
colors
Politics
Vols
##isman
Regional
Hindu
##okia
##embers
disagre
Tweet
30pm
##eze
##hend
Ralph
Madonna
assigned
Actress
span
Industrial
hamstring
beds
##ints
##astically
Blu
##EAR
reef
ARE
Cart
Village
conversion
##pg
freely
secretly
##rieve
Heather
arranged
separation
##tering
Host
Abe
USC
Pompeo
##GR
rubb
Trent
undergo
Getting
reconcil
##dd
equities
historian
leaf
1972
Westbrook
bacteria
trademark
unsuccess
lone
Sheikh
##cats
##ema
swiftly
##oulos
surveys
steadily
Trophy
tortured
strengthening
scratch
Hav
Walt
Wake
gorge
##coni
midterm
finest
stranger
Avengers
clearing
Meyer
##pd
LB
##shine
questionable
Lad
implementing
von
Rac
trim
earliest
rou
##fits
Millenn
##ittees
##Ind
Dhabi
Joan
defendant
nonsense
motorc
purchasing
##HA
##gary
instantly
Novak
issuing
ling
##world
disad
aggressively
branches
enhanced
Private
##cester
##inces
heating
Screen
Geoff
Ghost
junk
nasty
##asket
curve
##wait
passw
Gur
Suarez
Viv
tracked
possibilities
technological
welcoming
##iosity
palace
Hassan
##oding
completion
Athletic
##omez
Occup
advancing
hik
homeland
Ashes
##prises
Sciences
ICE
applies
Corps
Factor
##According
imagined
##ensen
meantime
searches
##avy
bass
##jad
Monitor
Bucha
Rory
uncons
Dance
interactive
Hir
Fulham
orientation
Roc
Sug
attackers
scept
##uffed
sew
Insider
##urry
Pil
fuck
##contin
organisers
Nass
lockdown
Esc
ladies
slower
mph
Tibet
##agher
Ni
fond
interf
##opular
upside
proves
policing
450
stealing
Wolves
##urgeon
dys
wondered
reversed
Prevention
shelters
Din
steam
Rid
##wright
Henderson
bru
Rut
Conway
iTunes
rage
Liu
unconst
Chand
undoubtedly
cousin
relies
magical
##asia
##alin
deliberate
POLITIC
Dale
policymakers
##riters
##UE
Register
flexible
sheriff
pile
Floyd
raids
reflecting
Peng
##uis
tribunal
lacking
Kushner
1976
Zimmer
pa
provincial
ounce
Wend
##deen
gene
surrender
spray
XL
gossip
laptop
edited
##iances
dairy
##holm
smell
Wagner
Made
eased
##midt
Dominic
VA
brains
Bulgaria
stored
resh
transaction
gangs
okay
backb
##anthrop
explicitly
abund
##net
Schools
##uously
##kar
shoulders
dose
##OCK
Indonesian
enab
authoritarian
magazines
fixture
contested
Ent
mathem
reckless
surviving
cabin
##ripts
eve
Syn
timeline
distress
##insk
Amber
Meet
Charlottesville
fiance
extradition
gru
nightcl
Carroll
unconsc
##ea
##ashire
##oshenko
##arios
Andrews
exploitation
cauc
##ussian
Travis
3rd
Conte
##acent
composer
contempt
consulting
Spider
Germans
credential
Mol
brid
Hang
inevitably
NHL
ht
Rihanna
##ovsky
##IFT
Nokia
Variety
interpretation
Intel
interception
belonging
elevated
##No
##books
precise
##UB
soy
navy
wary
##eption
##sterdam
Imagine
stole
aggreg
parallel
rabb
cancell
inquiries
shouting
Mills
tablets
plug
Jol
##iens
pants
urgency
Matthews
##imated
proceeds
administer
##ACA
convictions
##marks
licenses
##vet
##Des
sang
corridors
Spani
Opposition
ears
lied
##urrican
Agriculture
##kirts
populist
archive
##Bay
wireless
Arsene
Malaysian
cheating
SM
laying
stap
##intage
Hudd
cater
troubling
violate
abrupt
##lass
Thor
Furthermore
infring
bidding
##etz
Apparently
linking
rental
Ministers
installation
protective
rivalry
CAN
evolved
##ocate
unlimited
mans
extremism
tends
##eav
stig
Quebec
instr
Devils
refuses
Teen
##oland
##urricanes
sights
holy
Montana
##senal
collusion
creatures
investigative
Mercury
pepper
Comb
survivor
Ankara
Judiciary
Giul
peacekeep
##omore
##ede
Wait
redist
costume
Brotherhood
Sharon
Stam
Kuwait
aggrav
outskirts
liability
Previous
##ersen
rit
WHAT
##ustin
Janet
SEE
##otherap
ordering
##upp
partnerships
sue
Davidson
cybers
shouted
hilarious
tender
##itis
##ultz
catastrophe
destabil
Race
##anic
performer
Slovakia
##arl
consequence
Dest
unlawful
talents
contributor
Peskov
Comment
##rike
monument
Jill
Harb
sink
Throughout
mourn
##Br
surpl
embed
facilitate
IV
Mubar
blogger
seeded
Bulls
Cant
Panama
##chat
Survey
Britt
##itate
broadcasting
disgrace
Amsterdam
##DAQ
##itutes
flawed
##bye
hamp
masks
spends
intensified
exagger
Kap
##icans
technically
IPO
jam
intriguing
Columbus
Fresh
Bott
##5m
Challenge
superhero
Mak
disorders
Lis
Baltic
highlighting
##LONDON
sympathy
miner
Moz
troop
Lancashire
##phone
examining
Comedy
listened
contempl
wings
Huck
EP
##ghazi
Louise
reconst
Telegram
##around
coat
Mubarak
silly
incentives
inconsist
##gments
##opoulos
nude
Catalan
FL
northwest
##bird
wherever
Esp
Bak
nam
mistaken
##68
60s
alleges
shower
Hondur
studios
renov
##ARD
##affe
##etti
Strong
Voice
scare
Clar
palm
Grande
£50
4th
cam
##agged
frankly
Contribut
Wine
Wiz
Yorker
fixtures
dawn
##ORON
Lim
##chair
oxy
Winston
Ley
Benghazi
Isis
170
Cristiano
##GET
trump
cure
##onents
Glou
Carlson
lane
Tide
##track
Fitzg
##27
overturned
lake
firearms
##29
uranium
##itime
narrowly
Greater
tsunami
Affordable
texts
Suz
unfor
Legend
##enched
Clearly
infer
Minor
Rowling
Gomez
cheek
Clippers
##letico
##ACE
NASDAQ
Thorn
cultures
Vers
visas
##ardi
##oos
tactic
##roots
1974
VR
Produc
Guantan
tricky
glac
respects
storyt
Ney
packaging
Sacram
Vanderbilt
##fell
##uffle
##occ
militia
Miranda
##ANT
##hua
##Can
tournaments
insurgents
da
Sweet
aging
##oust
emotionally
traditions
amass
arc
##ervatory
socialist
erect
guilt
Windsor
disappearance
##attering
Alv
##comm
a€
whilst
villain
shorter
Companies
Drive
apologise
prosperity
Search
assaults
pork
logic
Guantanamo
Carney
Lindsey
courtroom
RBI
eyed
prohibited
##ellen
disciplinary
flip
##entions
excluded
postponed
Kin
pap
Rwanda
Indies
##will
Monica
rhythm
##arded
##OME
laundering
flowing
##urbs
immense
Give
Lebanese
FX
suck
WAR
smiling
pronounced
lesser
mog
piano
##uania
structural
Theater
1978
confirming
judged
deported
Craw
Gam
Therefore
Scholz
Coverage
##ulates
gaps
fancy
Somerset
Hook
Mead
Own
beings
##CL
reliance
trainer
##roe
profitable
Agu
economically
Disease
detected
rear
Burnley
deaf
Ess
yoga
##ilia
Guide
##KY
unpopular
##otti
Indigenous
skies
nutrition
municipal
oversh
divisive
squeeze
Recent
sanctuary
scenarios
fuelled
Pride
Kerr
##utsche
bankers
functions
##lies
##lusconi
##rows
overwhelmed
##ologically
clad
travels
Latino
whistlebl
alleging
##reated
priorit
##mys
HSBC
Tripoli
##ivic
750
manages
Rabb
generating
CITY
rubber
Help
##VI
rivers
1969
Advent
searched
##gorith
debuted
Wool
duck
Chip
preval
neutrality
Oprah
unhe
Rovers
connecting
speeds
hint
favorites
inability
Eli
Diane
Gang
occasional
airpl
Hannity
##sl
##ulative
Richmond
TMZ
Berry
##kind
Lithuania
##ORONTO
##lementary
dent
##35
##abi
wield
regards
underest
usage
Strateg
McCl
Jak
Fallon
witch
##asi
##outheastern
Trek
disrupted
##onsible
##ibe
##quez
##CAR
##py
poisoning
contentious
Antony
Jackie
Listen
Sacramento
nost
##ango
Atletico
embargo
1977
##So
Berlusconi
##eler
substantially
##ersfield
Fitzgerald
instruments
Nuclear
caring
prolonged
##oggi
##OK
Hispanic
benefited
Sid
Zelenskiy
phenom
##reach
Recently
collision
ore
##emet
lender
resur
Witness
aven
##rea
##nal
enduring
Yanuk
rav
grapp
Cuomo
incorrect
Cord
Abs
Ps
##PI
##ulsion
##ayer
Austrian
ideological
experimental
northeast
sequence
Parents
Blackburn
Shortly
SpaceX
##uum
poured
inadequate
Denis
declines
Doctors
blaze
Hungarian
Truth
Schmidt
homosexuality
Shaun
Kosovo
glasses
disch
wrap
Venezuelan
brutality
Cameroon
noon
##diction
expend
Focus
Reform
##28
##making
rocked
##apor
outc
grasp
Glen
dumped
Cruise
summary
##aws
advisor
unwilling
composite
Films
nursing
evangelical
##OUR
blockbuster
##ousse
bonuses
setback
##iaz
Fraser
retiring
##90
calculated
suburban
detective
contamin
1920
Mann
pad
blunt
##weather
inject
collections
revive
##ickers
Buddh
persecution
##Script
##irate
provocative
##las
Strauss
##gt
CV
##rof
##igue
##ilogy
Aberdeen
Koh
WIN
Boe
Bil
directions
##atti
defining
Khash
unpredict
facial
occurs
cigarette
chilling
poem
demonstrates
##ichick
enters
##erness
honestly
emphasized
creators
Melissa
blowing
Hos
slave
Date
Animal
##keley
aerial
allied
acute
##gom
backgrounds
##ustainable
stint
sci
indie
hood
Ana
swap
imprisoned
stiff
juice
Brig
##egal
Vince
resilience
##zo
medi
clinics
drill
Walking
Math
Norwich
Features
Ryder
tattoo
pockets
wash
indirect
Sergey
algorith
pries
Knicks
unconstitutional
##uke
JavaScript
tariff
##ilitation
battlefield
Kris
Nicola
Archit
credentials
vert
artwork
smashed
Economics
unaware
Mosul
colours
DNC
Vel
Claude
advertisers
Number
Kazakhstan
relied
negotiation
spirits
##aters
Walmart
Miles
Southeast
Were
fib
styles
priests
amateur
##urances
Billboard
##Gu
touring
restruct
Timber
cultiv
##ensic
Dund
cute
##main
turnover
suitable
##offs
##athetic
##ifty
Khashoggi
##inational
relentless
complications
Belichick
Curtis
Markle
lat
WAS
##2022
Aer
rider
##eur
##cestershire
forming
Katy
##strom
favored
processed
##That
Cous
thoroughly
stunt
##loads
chaotic
Lindsay
DACA
Privacy
##isbane
##long
##nar
spying
kidnapped
tactical
subt
brib
adoles
##steps
gorgeous
G7
layer
belongs
oligarchs
##boards
insurgency
##OWN
till
accidentally
Abbey
chill
lib
complaining
html
accuses
crushed
admir
Initi
relying
MEN
objectives
Bolt
upheld
Cond
pul
supermarkets
invading
##idy
bishops
dirt
comparing
shale
rides
##antha
songwriter
rubble
FM
Vic
possess
opioid
Ori
diving
##tenberg
mall
Naval
injustice
Patric
Riley
Coul
Kan
dug
Outside
photographed
##author
##Wh
aest
Berkeley
encourages
thrilling
Kimmel
thwart
Coming
incentive
fundamentally
refund
Hezb
Compet
lacked
Dancing
##hor
Cliff
Guat
contractors
posters
##鈥檚
legislators
##kok
##heid
Mis
Cavs
Nest
##aran
incoming
##brell
stretched
pave
kidney
museums
vibrant
##alez
clarify
Code
Brock
felony
Gavin
Additional
Elsewhere
##aunting
Cardinal
rings
peoples
accidents
contrac
selfie
Scots
##NEW
gunmen
foref
##abs
relate
server
battled
Singer
appreciation
instrument
rooted
EV
Gut
translated
accelerate
surplus
Tyson
recipients
staging
tissue
Patel
##elo
cooked
Analy
Liter
experiments
Montgom
unbelievable
pursued
##inas
##rapping
Customs
impair
##ommun
Hil
imperial
affiliate
Sr
##ortium
Huddersfield
Hezbollah
Kum
faculty
Democracy
Raw
##Ukraine
clips
strongh
##shot
uncle
imagery
stronghold
Abraham
Gran
20s
Burg
Farrell
Housing
casino
##tar
twins
dismissal
toughest
needing
##cr
Artist
navigate
##WA
Officers
##emetery
##hart
mixture
##iblings
##COW
youngsters
##yon
Compos
jurisdiction
Salah
fixing
##ussions
SWIFT
##imm
Clarks
councill
Holdings
bets
Nin
Spy
Sleep
purely
Bez
triggering
Pog
sung
##mod
ambulance
shaking
Mum
##enzie
FROM
Cyrus
Lan
##othe
wasted
sketch
CF
boring
SAN
##inda
qualities
vaccines
recycling
indul
Azov
ordin
ther
inaccur
urg
vegan
Brisbane
plagued
SS
Gand
##sole
verify
patience
disrespect
##ych
Stol
mush
garb
warr
scholar
pornography
plight
bits
enjoys
sheets
jeans
Hilton
##fr
CLICK
borough
subway
lately
bids
robbery
shoe
bullets
##being
stockp
tabloid
##mented
assembled
Meg
##zes
Speed
##forward
Matter
punk
##plex
audit
affiliated
chemistry
oxygen
aligned
Pam
##MORE
Poor
booking
##ipse
##odies
drift
Dut
##liner
Really
##LO
Middleton
mines
fortunate
regain
##ilies
Tab
gown
##urst
quo
considerably
Vote
une
Happ
Shadow
signatures
sparking
##olph
##nis
Word
Sche
squeez
Mood
##However
##olics
£100
livest
summon
costing
accommodate
##ectives
reinforce
##table
founders
Colon
Kit
pond
Tea
vicious
##terson
##uterres
magnific
Shen
##ERY
atop
1971
IF
sophomore
rehears
SD
funct
Nair
##ui
wrist
beneficial
sensit
hurting
stew
functional
associates
Marin
timely
##girl
coordination
Kenyan
108
refres
stormed
##oner
repe
interaction
slogan
trades
Welcome
Gamb
Hack
identification
irrit
Freeman
wiped
Across
Protest
Stay
Ballet
##aning
Sophie
Cambodia
fraction
recons
assessed
Klein
committees
biography
Volks
resumed
Yard
newcom
Fifty
comparable
oceans
consciousness
Laz
annexation
##BE
hypoc
##itsch
Thames
Parks
multinational
Doz
meter
Someone
obsession
explosives
unequ
##lif
filmmakers
Guatem
Tucker
beside
pharmaceutical
cognitive
Due
prosecuted
concentrate
touches
##zai
grassroots
Gonzalez
socially
effectiveness
siblings
tin
##rio
securities
##inski
McCart
##ieri
FRAN
confessed
mentor
Dad
defeats
lacks
Minsk
##lements
identical
Shield
capitalism
teamed
offerings
urgently
chron
188
##gement
103
Spect
watches
gases
grades
dive
retained
##yster
Adele
condol
Racing
turnovers
##anson
Transportation
maid
Close
metre
immers
notor
suburbs
##ggy
##Ph
##wagen
Algeria
##ondo
distinction
Toyota
elephant
##isers
##olves
Sally
visitor
jewel
halfway
identities
printing
synt
attacker
Bangkok
##gi
reboot
quake
##icable
alerts
saga
Pi
applause
physics
unemployed
Mig
Keystone
Isaac
origins
Dollar
prone
Bour
ransom
##OSCOW
abilities
Nice
##uto
Sou
mature
nuts
##cha
Kenneth
EN
##entry
delicate
seaf
##quet
##heads
activism
Similarly
Insurance
invented
straightforward
##ACT
##resident
Neymar
pets
##eves
crore
resistant
exile
Vogue
##nie
skipper
Glob
amendments
betray
Stephanie
Angl
Robbie
electrical
disruptions
##ptions
Shop
embarrassment
nostalg
Junior
##icians
thunder
fashioned
AAP
Harle
Bee
assuming
Ring
Tah
Anfield
##retion
cattle
sway
sided
recruited
Ble
battered
Kor
100m
consumed
libraries
extinction
sworn
predicting
Wing
marriages
licensed
spear
Hugo
Eug
##rior
UT
disqu
Aviation
batting
clues
shortlist
Guterres
candidacy
batteries
insights
patr
penet
Politico
##heric
provinces
##itative
EUR
nightclub
##abee
slog
undergoing
mortality
insuff
##ANG
Timothy
Argentine
lion
Solar
tongue
Lionel
asc
imprisonment
Fuk
##eni
shine
liberals
escalated
Choice
undercover
Mn
Sey
##iao
trustReuters
worship
##identified
theatrical
satisfaction
republics
pledges
certainty
contractor
bargain
##Share
insurers
rebellion
##ART
##Story
Spirit
Unc
##gregation
campaigned
obstacles
brick
Syl
festivals
habitat
neglig
Ches
commentators
merit
patent
Worth
damp
enabling
##phones
Riyadh
Poc
##Brit
seiz
##Book
##mand
##elin
unm
reaff
feminism
##fund
Ask
volcano
unexpectedly
governors
seasonal
bund
##eem
##estation
accent
protested
protocol
Tanz
##usters
subsidiary
##ratic
verbal
gymn
problematic
mogul
Cit
Leonardo
Juncker
##herd
##stage
particles
constituency
stones
chol
##nyder
bye
Retail
commentator
todd
Narendra
touted
embarrassed
sexist
Sorry
erod
##isure
blat
inflamm
monkey
Franken
compromised
Either
Sara
suic
whites
Hayes
initiated
Motors
Gir
##eded
meddling
volcan
Independence
##zi
Barkley
Prison
dens
dancer
Alban
sponsorship
wildly
undermining
CM
feather
attracting
maxim
Nepal
correctly
pitched
ruth
##uns
##ECT
basement
dash
stats
Lif
poorer
Lah
clouds
corridor
##erk
harb
Rank
sacred
hem
Updates
##ceptions
Said
Bulld
##elong
##They
competitor
Dragon
£30
figured
rightly
##itored
enacted
recordings
Investigators
Rum
tamp
##edIn
##icia
prizes
Natalie
LI
eyeb
campaigner
NYPD
laps
Jur
##orig
##elines
calories
##ventions
Jefferson
Samantha
switching
##avid
##arat
##rob
societies
misunder
congressman
Leh
##hani
##peace
##fa
projections
Studio
##isible
intact
##roper
Leigh
cups
kit
Fly
corners
justices
##atories
Protesters
##amount
Paralympic
rifle
##fts
Fleet
disl
##agraph
##Too
Cob
Carey
medicines
pastor
Freder
lease
instability
Tas
Yang
Clarkson
liver
demographic
Analyt
fores
Newport
indicted
bombers
CCTV
Midlands
spite
Abdel
##Co
Gregory
NR
##oug
strengthened
Current
tooth
intentionally
constructed
woke
Deutsche
Arabic
sank
concerts
terrific
Spart
Neal
bro
sensation
philanthrop
festive
clashed
Echo
plac
galleries
wines
##PO
reconciliation
MSCI
naming
Proc
Estonia
comics
volley
Restaur
entries
Initiative
Yale
Snyder
Eden
Crisis
##53
Unless
oh
suing
laud
Catholics
qualification
Supporters
Miley
Haley
beats
Beauty
tasked
limitations
Semitism
##IAN
##erting
##opol
practically
darkness
Pab
Apart
Niel
Waters
defeating
evaluate
healthier
Alberta
toe
##yll
Lynn
monitored
Maced
overlooked
Clo
Perth
Volkswagen
protagon
metaph
predominantly
accusation
unleashed
Violence
blend
Wildcats
erad
bureau
Pok
Olivia
##ieu
McIn
finalists
Churchill
treats
traumatic
surging
impeachment
##erte
standings
applicants
##OD
##neath
concludes
Highway
A3
##gie
##awei
downturn
##rawl
Regard
Stamford
Body
hostilities
Christianity
##official
administrators
##ARY
Zika
separately
Vent
##pling
Residents
Ultimately
Lyon
bunk
outraged
dependence
Yellow
1930s
healing
##Face
shattered
entity
transmission
Burk
olive
Lars
inters
##rama
Southwest
corps
##rovoked
##iph
##hamed
Map
##frey
disinformation
Springs
heir
succ
vintage
forefront
##kowski
elegant
##eno
##outing
Jolie
Alamy
Freddie
pivotal
##atorial
dumb
farmer
prosecute
verified
enrich
regulate
irrele
aster
deck
bpd
patron
reunion
cliff
soap
influx
hoax
quad
Bro
##Some
appalling
conscience
landsl
detailing
wholesale
perpetrators
microp
info
##sworth
##ogyn
DeV
PAC
rounded
rolls
##elman
##eme
fatally
unarmed
Phys
Medved
kidnapping
Gross
##leck
laug
CO2
Moldova
##adan
Bruno
##orsi
Burke
Beverly
WILL
unusually
countryside
assumption
RBS
travellers
liberty
FREE
##haw
tut
##wald
Resc
##raits
griev
Maz
tales
##isha
marketplace
25th
Appeals
oral
##ainsbury
deposit
##kei
unprovoked
Snapchat
##cely
Cash
remake
gauge
vivid
##Right
##onte
staffers
Quarter
ACLU
encountered
Kirby
unanimously
##Cap
Piet
##irling
hype
disgu
litigation
Bapt
flower
Centers
suffers
##isse
composed
Average
Dana
Schne
Choose
ray
##urable
clearance
Cousins
##arged
Payne
probation
attendees
minus
retr
##ainted
##houses
Veterans
104
JO
Ran
##cepts
enthusiastic
Sturgeon
announces
Vern
Fah
lightly
Cyber
hind
defenses
depressed
##ophies
essence
Hood
##rowing
##elve
undisc
nationalists
NASCAR
notified
##ennan
charm
Fry
contracted
Cheney
106
killers
woes
Vas
##athing
affection
##PL
mega
Lambert
##screen
resolutions
##ourse
bombed
stereotypes
Ramsey
Leo
mansion
Osama
cautioned
disposal
##dain
athletics
Sherman
fox
102
##ribly
Utd
organizing
loos
Behind
##ustral
electorate
Towns
sprawling
Xinhua
Suff
vague
Eye
##owitz
surreal
temple
penned
Ethiopian
shook
Sens
coupled
##Former
fulfill
recommends
Buckingham
Citizens
##ewise
preference
creditors
interfere
reductions
endorse
Lamp
pills
##lis
##fly
humour
Sham
slumped
Pred
ensemble
Tourism
##ichael
Cornwall
Init
graduated
##arts
truce
Fow
Conservation
Hours
outcry
Rot
##World
angle
##arin
neat
##intendent
laughed
southeast
Baron
Composite
##watch
Lot
##anton
lining
positioned
reneg
Imper
freedoms
Origin
LNG
TB
reproductive
zoo
##recy
certificate
centered
reminis
medall
Greenpeace
THEY
reminds
##encia
Huawei
nail
washing
##runner
inhabit
vacuum
##arious
rewards
OFF
tenants
Petroleum
Venus
Montgomery
Troy
sadly
##amation
Marx
##ographical
maternity
Alfred
Tayy
##eca
Sandra
plunge
fortunes
MEP
##omon
##oppy
SAY
Rica
Nut
Soul
Hogan
Isle
911
kills
Pogba
throat
electronics
##mi
Treaty
lightning
Return
##oslav
improper
Tennis
Creek
litter
stalk
underwater
Mayweather
laboratory
briefed
##KS
McCartney
Confederate
sticks
##bound
hypot
Nikkei
Cork
##Twitter
Hyde
trilogy
batsman
BST
wears
Standing
Zero
##ewide
Giuliani
Prices
Coff
1945
Rise
constrain
rip
Corey
stal
##thouse
USS
##iating
attends
Northampton
##Two
##card
Newsp
shootout
Patricia
Boliv
startups
coached
assurances
##ombie
accompanying
breed
##osity
Wong
trap
concussion
1964
antis
Spaniard
tire
Minne
salad
transported
streams
Truss
justification
pointer
tapped
Title
descend
##Rep
miracle
Unit
Shir
enforced
##atable
Yankees
Newman
meltdown
IRA
##racts
wellbeing
IRS
median
##quest
Universe
Broadcast
Sloven
##adows
seniors
dipped
##izable
hazard
assertion
paragraph
Janeiro
Spiel
Lukas
plumm
sexism
##yers
spur
Leslie
##eu
1000
Pearl
plaintiffs
##Facebook
##sk
Kens
disgusting
Block
Syrians
infect
Abramovich
Knights
endeav
##uman
Ahead
militias
bounced
fore
cares
confusing
Posted
unpredictable
inquest
Rising
angered
##rise
Butt
Stoltenberg
domain
bypass
Depp
sadness
reth
remainder
##ipedia
provoked
##onts
Concern
transc
HR
##beck
Frankf
##100
##verts
unidentified
canv
Hoffman
flesh
Sugar
##gging
debated
Minneapolis
Wiggins
deadliest
##65
succession
misogyn
Pand
dresses
whoever
Tickets
costumes
Batt
##rews
distinctive
injunction
populated
builds
unite
gardens
seam
administrator
##asant
jurors
soup
appointments
Already
asserted
intol
males
##urkey
purported
UPDATE
##utenant
monitors
Blatter
urges
Fourth
teaches
expelled
##market
Salvador
##ailable
addict
commanders
interactions
suite
Print
skeptical
paed
##OUS
##LAND
##racted
coral
Ricky
verge
tribes
Gilbert
photographers
Gunners
vulnerability
##chenko
##otion
flick
Malik
##with
owed
Train
functioning
##inite
Gerr
Damon
##ente
planted
Remain
##ieval
inspection
swall
pie
washed
Knox
##ORD
##Up
appreciated
tumbled
##78
blacks
##otto
jumps
Study
sensible
blanket
Mahmoud
cocktail
##von
blu
ate
Actually
Chem
arsenal
OL
##isexual
indoor
SUV
sizes
##brough
Panther
syndrome
Trad
servants
resisted
salmon
sheep
Leone
autobi
recreational
treasure
Vale
Jet
advise
Cola
Bezos
trace
supplement
Ny
Comic
Archbishop
lowered
##endered
##uffy
compuls
##Station
challenger
Hed
irony
turnaround
mobility
contents
Tests
restructuring
##emi
objections
fluid
sidew
apartheid
powder
Dundee
QC
anytime
discretion
architects
aluminum
Paulo
Certainly
injection
guitarist
Honda
Huckabee
collar
Falk
Regardless
##etcher
sometime
shorts
evolving
MH
crashing
rapp
##HER
Patterson
Sainsbury
shrinking
parole
##rill
##ollo
console
##berra
flies
exhaust
unwanted
Bog
##adowed
exhausted
skel
prolific
##NT
MLB
mant
bridges
##Mar
slew
faithful
Stockholm
umbrell
Bass
cuis
arrivals
soundtrack
Albion
slashed
longstanding
##oped
suited
1963
Ports
bowling
Bulldogs
##inejad
Sue
wished
flavor
align
inviting
prox
charming
smuggling
terrified
strictly
lamb
Colombian
##osures
performs
Sadly
Hazard
Olivier
newborn
slap
Tomlin
eBay
sellers
vaccination
educate
beans
overly
Zoo
associations
scrapped
homicide
##stead
trader
negotiators
##ineman
Africans
leagues
interfer
sums
fathers
spreads
derby
##onda
abusing
categor
fury
world鈥檚
##apest
outing
publications
Works
gifted
Patrol
holder
chorus
Soft
reunited
Kendall
portrayal
consuming
undermined
bang
charism
homelessness
Hoy
##asa
Santos
instructed
##allah
Sundance
Tayyip
cyclists
Epis
##aned
incon
altered
buoy
Ivory
MOST
Tree
mocked
ruin
explores
underneath
legitimacy
bay
condolences
iv
##andan
unpaid
Jal
Send
disreg
Fifth
Level
##hl
##opoly
conferences
unconscious
nest
restoration
2050
##igo
dealer
concentrated
magnificent
convenience
Bun
consists
Student
accelerated
garnered
Torres
metro
gov
MeToo
Niss
##ealous
footballer
Darwin
horizon
##iago
##bles
##voc
hostages
##points
breached
##liners
##izers
investigator
##ENS
##aa
Cec
oversee
grabbing
institute
Ot
##Follow
immunity
scam
Enc
##75
defiant
##hin
withdrawing
announcements
Occupy
##rice
whale
##original
##acket
explored
112
hefty
##WASHINGTON
thrive
blockade
Analysis
Lug
democrat
unanimous
yeah
Tyr
reel
licensing
Mi
##aval
blogs
chefs
balloon
labeled
whales
garage
informal
Boyle
irresponsible
##otherapy
deton
psychology
translation
breathe
Bosnia
##rez
ferry
##Car
##igs
ly
##azy
Mb
Victory
Target
humble
gravity
##opy
collectively
bikes
judiciary
sidel
advant
widow
mentality
##illes
eld
##John
##riptions
executions
merchand
Wid
##cm
exporter
Teachers
Griffith
happily
admissions
##aho
trailing
##htt
Orban
##ipher
orph
rebuilding
ost
judging
gren
##ogram
Original
##angle
Moody
upbeat
occurring
besides
##aton
assessments
Saban
falsely
##49
dispers
sensational
frenz
crush
confron
##IAL
Faith
Mash
bog
lottery
melting
##XX
proposing
underw
breaches
Rescue
Conor
Limited
shipped
##KK
heal
BS
hurd
garbage
pale
strangers
Mut
motive
Coca
Lil
Mam
Pey
knocking
Dragons
##ettle
Resort
Trail
Fletcher
Zion
5th
Fortunately
Southgate
tribe
warmer
negotiator
HollywoodL
innocence
Moyes
##atra
Than
McV
Pew
##ussie
Kiss
Eventually
AU
Gul
laughter
yours
Belt
Cad
helmet
##ironments
Minority
frontman
Stokes
beautifully
sculpture
forensic
secrecy
frequency
elephants
devastation
tops
anticipation
Canberra
OT
spectacle
expired
Enfor
inspector
PT
defer
Kyr
infilt
##oco
Chi
Zoe
##President
cod
attractions
##ISH
Wikipedia
sympath
intimidation
GC
dub
Prob
##laughter
annexed
rampant
1966
criticizing
Gerrard
slice
##ionage
##iman
backers
aluminium
propose
prediction
Ramos
peril
##urgen
remembers
potent
Og
##nian
##bag
##ennial
ODI
martial
Visit
lens
heartbreaking
gad
inflicted
##esar
GPS
Annual
Dozens
reactors
##mb
Altern
Hew
upro
obl
T20
slash
##anto
Ort
detectives
wrestling
rej
specialists
reigning
lecture
Cathedral
logistics
Saw
Abrams
overseeing
##achi
solving
Contributor
##enaissance
fairness
certified
constructive
restraint
##ffiti
##rix
UNH
##rab
goodbye
encounters
##cock
Alison
brush
Holiday
sitcom
Lawson
Quick
Rees
frontline
Families
divorced
py
despair
statewide
restart
Advis
Kasich
southwest
##quin
##headed
skiing
demise
honors
Barrett
facto
Kob
namely
Ans
Chron
185
##DR
rainfall
prohibit
1960
sterling
##bart
reopen
shelf
versat
Steph
decorated
Baptist
##Ab
Morsi
waving
Duterte
Reddit
Lie
refrain
##ampire
Schneider
cra
Noel
Jerome
##esha
1962
stagn
PlayStation
timet
tricks
##uki
Cout
FS
upward
##ucked
Philippe
irrelevant
Bengal
Xav
athe
charitable
exploited
ANG
tendency
Champion
protester
heaven
##game
sweat
##astair
systematic
accordance
Zimmerman
lips
freel
laughs
RF
Chang
environments
Stefan
##esp
107
Consider
relieved
2023
knees
Foods
Stones
Devon
Infl
regulated
##esis
Gos
curt
gunfire
##ewater
racially
##zman
TC
thereby
happier
Hardy
Donbass
shaping
Williamson
Lance
Preston
Chambers
gloom
labelled
Comments
##losed
##NING
##sted
##unders
opposes
bleak
au
rewarded
##kg
accurately
Counsel
##zen
stroll
slid
cere
Fay
##aways
##VA
lineman
instrumental
minors
Wolver
##lake
##PLE
unav
pointers
hostility
Koch
##orne
Kon
Ahmadinejad
prejudice
##waves
Tou
sir
230
capturing
jointly
Joey
wheelchair
reinst
Talking
resurg
monuments
Gardner
##rians
portraits
screenplay
Toby
##hones
stellar
Whitehall
aka
federation
norms
outlaw
coveted
favorable
Belarusian
##ounge
Greene
##fam
keys
manslaughter
flaws
##iatric
Innov
##HP
descent
belonged
##foot
surprises
Nielsen
Previously
cybersecurity
##El
##amas
crushing
Performance
outperform
##chin
img
Marathon
DUP
2018The
shaken
Ashton
premiums
hints
##Not
Observatory
Bucc
Aur
supplying
Phel
##hey
warehouse
chick
organs
##AME
ours
unint
servers
Brennan
Ofcom
listeners
Raymond
pretend
Laurent
illnesses
Catalonia
owe
fireworks
ashamed
rallying
Strange
poly
##inke
Hayward
downgr
leaking
Boehner
indefinitely
Cool
175
shutting
stakeholders
embracing
Fellow
scattered
50th
Frankfurt
Spl
exchanged
Arri
Motion
Boxing
tighten
Psaki
Gors
Sgt
observe
acre
styl
Stafford
deposits
##inate
antibiotics
Lily
rubbish
Frenchman
113
##ogo
companion
Starting
adventures
deprived
floors
Balk
embry
smash
Vick
nep
##TM
trusts
Kra
tube
outgoing
extends
predicts
successes
hated
Debbie
adopting
predictable
Luxemb
HAVE
indisc
exclusion
boarding
Jenny
biod
oven
rejecting
rehabilitation
##obby
exposing
Affleck
insulting
mechanisms
gates
pardon
excer
colorful
jpg
Leading
pipe
invisible
Semitic
McF
Schwar
Oft
harassed
##human
##uded
Won
##amps
physician
outer
privileged
##99
knockout
##amese
Clooney
AK
pretext
Chester
characteristics
Gallagher
shit
insufficient
Kirst
Paradise
Grass
##umbl
explor
bride
submarine
aspirations
##dn
spat
##emost
##obyl
ensured
offenses
wives
Album
honoured
Subscribe
subd
THR
##usch
BRE
Button
lanes
Elvis
finishes
##iches
Exeter
##aby
overdose
planets
parad
Senators
translate
##imag
##33
##atisf
airing
Pablo
##enna
embedded
ivory
##inkle
Revenue
Phillip
rogue
Evening
overthrow
bisexual
consume
Circle
111
##azor
varied
adverse
##LIN
wildfires
Medvedev
##44
homeowners
nonetheless
circulated
##prisingly
wand
Fan
##note
Watt
engulf
exceeded
Illust
Angels
Pedro
DON
parked
Sig
discriminatory
dazz
apartments
stretching
inspectors
PSG
NPR
seller
Higher
Enforcement
##pack
##tenham
FCC
##lessness
slaves
TIME
Jacobs
aisle
booming
##law
MON
vandal
##nip
Megan
revis
complexity
constituents
IPCC
Alastair
weekends
bri
##itous
##MAN
untr
##atible
##rowRight
curtain
Lip
Seg
##IJ
Mikh
resent
##althy
preserved
##hu
spurred
strained
arrog
##ugging
youths
bombardment
EL
##UK
eag
##unks
chanting
doomed
SB
ace
Briton
peacefully
cryptocurrency
monarch
acknowledging
autonomy
IG
payroll
rains
illicit
eaten
Mons
##gage
protects
##step
contests
blessing
comparisons
exporters
2025
##ARC
Johannes
Jonny
##aniel
Idaho
Boot
##andy
emergence
Mattis
eliminating
recipient
##rose
Senegal
Liga
Roland
tying
intercepted
##fri
Alert
##soever
apocal
##folk
wholly
storytelling
Spielberg
advantages
##ADA
sounding
mour
determining
##ACH
##imination
##emption
##OOD
topping
reactor
##JP
scoop
observations
Filip
##0m
sabot
##pit
Absol
insecurity
hills
Contact
symbols
Partnership
decree
observation
Ariana
LinkedIn
orchestra
Shiite
Fuller
excluding
Diet
Apollo
Keen
pressured
tyr
whopping
prospective
£15
paths
enables
Rouhani
spik
grandpar
PRO
##ENN
cracked
computing
Anim
formid
purple
##atta
##odus
##ormal
Sexual
Cafe
##urm
##robe
##bach
Laud
injuring
stylish
fringe
Section
raced
medieval
dedication
quicker
Jurgen
##Rel
whatsoever
##ido
bleeding
##Care
signaled
transplant
##stick
underwent
Zuma
factions
##pted
smiles
holdings
Budapest
##uba
##imson
distraction
workout
sideline
mortgages
ruined
Clement
Edge
##afia
IST
##herson
##enth
##IX
whip
McA
##ashi
offended
Breit
caucus
Katherine
Martha
##OTUS
creature
##ilitar
Auto
220
Stern
jeopard
layers
Mate
bolst
emailed
##broken
Cornell
rouble
Honduras
looph
Imperial
sidelined
##reys
solved
psychologist
Liberia
Gardens
sinking
##ICT
Ulster
energ
Lead
prototyp
hect
campuses
##opsis
answering
##fulness
candy
Lower
##izations
cheered
premise
9th
satellites
Lawyers
personalities
breeding
Fir
precision
Nissan
##akis
revolt
##ignant
satir
wheels
skull
tyco
##aunt
definitive
pouring
banker
Baylor
twenty
kne
correl
240
marching
vag
ampl
Solo
evaluation
##inum
##ussy
malicious
classics
AdvertisementThe
glorious
broadcasters
##andro
Indy
Economy
Owens
##orius
Sz
sober
tolerate
##Advertisement
Tanzania
pundits
assaulting
Yates
receip
vari
##je
lifelong
saddened
Fowler
females
Wilder
readiness
slogans
##efa
whit
1965
passports
Marr
Neville
Upon
##arta
savvy
Somali
reassure
dishon
reconsider
smallest
##ravel
Fine
30s
Naj
##eley
##opsy
Clint
trending
leftist
insiders
Donovan
Hearts
formidable
foremost
Million
##otive
cuisine
Holder
£12
Calvin
##mind
##Qu
##iva
mindset
lend
caf
elites
misinformation
Grenfell
singled
Plaza
discusses
grandchildren
Yo
interpreted
Gorsuch
cheering
Consid
Myers
Discovery
resilient
oath
##Russian
clutch
downward
##iona
bargaining
Luxembourg
##overing
solic
impending
plotting
##Os
codes
Ging
Cheltenham
branding
Incre
##enny
pilgr
Competition
trophies
depicted
stretches
NGOs
blonde
Syrac
exotic
##uka
Naomi
##uire
Johnston
Jamal
Bast
doubling
Pokemon
interrupted
footprint
plates
Pirates
nurt
##ossier
Valencia
Syracuse
influences
Selena
proudly
##bnb
Fac
atomic
Verizon
livelihood
APP
Woody
inherited
slapped
Continued
##bin
misery
##AGE
puzzle
Yemeni
##rust
##IB
adam
crafted
doctr
Heavy
bloods
wonders
vegetable
Maid
organize
tant
Arc
Respond
lemon
blues
stigma
Episode
cooling
consultancy
overweight
Ryanair
Penny
misses
Harold
slate
Beg
Marina
Popular
violates
Fairfax
mim
occupy
Carlo
Eri
laure
reminiscent
Kensington
relay
underpin
##gger
surgeon
dysf
punct
mast
drown
Erik
##aneers
amounted
Lowe
Rosberg
cord
Mes
Jeb
dare
Morm
adul
Orchest
##igi
damn
##marked
instinct
aggravated
##arten
ruins
empathy
##apoli
Investigation
Und
positively
##casts
chaired
Diaz
Lviv
contaminated
LO
Chloe
##acements
Byr
Correct
Rocky
worsening
retali
Globes
##heed
suspending
undef
unsafe
sic
Doyle
Expect
bubb
chic
##ieve
Islamabad
bigot
redund
Chapman
Wyn
##namese
neglect
##Am
underdog
relegated
ageing
astronauts
interventions
enterprises
sandwich
##48
MLS
##poon
Euros
##writing
blasts
undertaken
186
##eran
##ctica
##ensed
##GETTY
Mikhail
cancellation
Shannon
fares
Irma
Gron
##vance
retro
##usions
operative
princess
lighter
dealings
Guild
ANGEL
Nolan
##Watch
Kristen
feeds
promotes
inventory
decreased
aggregate
systemic
substances
Chernobyl
premiered
Cait
##illas
##herty
tighter
RS
cites
Programme
gray
ONE
Antarctic
Zur
booth
mice
##compass
##TIS
##orah
##asso
clearer
Wendy
Froome
650
##uling
overl
2024
Details
inaccurate
reopened
##master
scholarship
Stalin
Hunger
vic
liberties
fruits
##knapp
Superman
Sharp
oriented
hurdles
reasonably
sor
0000
Latvia
malware
midway
eclipse
frightening
##asketball
mourning
statute
Fargo
Legislature
dock
##rys
76ers
Aly
clown
Lik
measuring
hurts
lonely
hey
##ysc
batch
liquidity
Ston
Detective
Glam
Vietnamese
logical
dictatorship
affirm
cotton
queer
Bundes
exams
foundations
Calgary
unsuccessful
Vaugh
stopp
##iya
productions
##AFN
##osaur
landlords
maritime
pics
impart
##igating
continuous
fried
##ospel
Gerald
NOW
##gal
##keeper
artic
##ecd
Unite
Portsmouth
Ips
voluntarily
Lancaster
##hettino
interrogation
Wow
lure
##number
##uds
employs
##shaw
cruelty
Twin
##doors
Rapt
illumin
embattled
Winfrey
mosqu
MOSCOW
Jup
##ieves
weakening
hawk
##hurst
Emanuel
Gle
##amine
dorm
114
duration
135
stationed
sympathetic
BMW
##iko
Thirty
miserable
nud
LOS
Zar
departed
nickname
##Ed
scan
unfolding
Shia
Imran
settling
Randy
##ilee
##illon
Aside
Burr
Tale
nearest
bloggers
Peyton
closures
keyboard
Tomorrow
bored
##hement
remot
##rox
cables
circulation
outfits
satisfy
Wu
##zel
unsett
petro
concepts
lavish
##hops
usher
Countries
Often
##oof
digging
pushes
Susp
indications
Antarctica
cleaner
confined
##ados
Athletics
DM
Stap
competed
contend
abstract
Meth
Bend
Hag
##Most
##PORT
Airbnb
HP
unified
Hero
##ETS
##pine
##amba
tastes
##itte
Separ
Mix
tub
Nina
Letter
graffiti
qualifier
crashes
acknowledges
Mang
bluep
Mong
traj
Germain
forc
##isco
masses
analyt
Breitbart
blessed
Garrett
assign
traject
bun
sputnik
losers
Name
Iranians
isolate
##ieth
profiles
groundbreaking
Hawking
##azer
DeS
Belle
manufactured
millennials
Buccaneers
##ifiable
Middlesbrough
playground
Fighting
Sutton
##hift
turkey
##iji
similarities
encryption
elementary
##astonbury
indec
Wit
cracking
Twe
discounts
Sherlock
convenient
Into
endure
Fields
##Com
stabbing
ACT
Redknapp
reacts
overst
distribute
paired
##fold
disconn
fart
##azers
integral
billed
realm
stuffed
compares
##oven
RES
Anonymous
reduces
Chef
prostitution
humil
ink
Fell
##vez
Steele
unauthor
grounded
Dixon
primaries
fortnight
Kemp
consulate
##jah
Wald
Marcel
Mina
Twenty20
pulls
##enos
oppression
unfairly
Armenia
##ggie
Ramadan
Chin
cyberatt
Jas
Systems
consistency
##rentice
##version
##obile
chunk
consortium
flurry
##uming
cleans
##ICH
nit
Willie
flagged
behave
scrum
##mediate
tuned
reservations
Cards
Murder
vine
737
remarkably
sectarian
surrog
##ilight
##Now
Maver
LLC
insane
inconsistent
##enzo
JPM
KC
Teb
##post
encompass
unilateral
damning
CNBC
Annie
Miguel
##asis
promotional
majors
##vertising
##escope
##Eng
##osta
proxy
##RO
Chev
MY
receptions
Crawford
fascist
tick
AA
Cock
DOJ
constitute
8211
utilities
realities
Rhodes
valuation
closes
##erner
graduation
REX
##emit
Gret
POLITICO
por
Birth
sailing
chopped
##rafts
Ave
Lisbon
discourse
JP
Coventry
Zone
singers
##uleba
##rique
Egg
footsteps
Pulitzer
parenting
molec
intake
potatoes
thoughtful
116
Lomb
understandable
skip
sputniknews
ordeal
accepts
deputies
Collection
HER
asleep
apple
demon
insert
Boyd
WOR
Mental
nickel
shrink
timetable
Stage
Purd
Fantasy
lingering
Job
##inel
comfortably
trous
Double
Guatemala
##iferation
##goers
exter
responds
demonstrating
sprint
discovering
parental
garlic
vendors
Elton
Cros
Angelina
##uton
Neighb
##inent
Courtney
Robb
Hip
undisclosed
##build
117
##fu
biopic
Alexandria
woods
guides
sunny
Midwest
animation
Symph
Hello
##lat
Minutes
deceased
Humph
##loading
2017The
revived
##arius
Lay
Interview
jaw
Serbian
Poroshenko
Bag
Strategic
seated
McLe
necessity
Uefa
Katrina
stif
##ucts
##Net
acquitted
Schultz
Weekend
sharks
deepest
advocating
##caster
Fen
civic
bribery
##car
Jupiter
buys
Commod
cried
apos
Erit
##ppers
captures
homophobic
ritual
Tru
diary
wrongly
thriving
##Fr
strengths
Skrip
##olia
DeG
umbrella
##FI
compliment
Eagle
Flick
pickup
Samar
raft
Toul
clue
unear
mitigate
Pearson
Blacks
Farah
grandparents
breastfeed
##qa
genetically
Salis
reclaim
Glastonbury
##olt
Guin
screened
##dinand
##55
Baseball
pairs
exec
burns
Gallup
cum
impover
##into
eco
Zamb
30th
espionage
jungle
BNP
fearing
Volunt
Zhang
Opening
Talks
##ilm
voy
fitted
Cooperation
##warf
depicting
housed
##lain
Saleh
Alleg
Growth
Garr
muscles
Delaware
1950
Technologies
OEC
##VERTIS
trailed
Dayton
Iain
##after
Gingrich
cubic
Cinema
prey
UNHCR
thrust
ceremonies
Mous
guerr
haunted
Osp
regrets
amassed
lam
hacker
NME
dwind
##stairs
bloodshed
amended
thumb
##olson
##regular
spells
fronts
Leah
7th
AW
##Berry
dried
Goff
wipe
Edition
cinemas
Yellen
shade
maneu
DI
safeguard
AJ
RUSS
shred
recognizing
barrage
Ach
denomin
pestic
terrain
VW
##redited
CAPTION
sensitivity
Sharif
Wis
recruits
Patt
Sinc
##vi
##39
accessories
Islamists
##MENT
destined
skew
Deadline
livestock
suppose
##ankar
Holt
exclude
pioneer
##FT
##Ps
Americas
##inka
refreshing
eruption
continually
fiery
Running
uniforms
disagreed
Member
##bands
Ferdinand
Iss
tore
tenth
Orchestra
premises
harness
Termin
##200
clergy
hence
##base
##ynasty
weed
traces
punitive
hospitalized
cush
makeshift
execute
runoff
QU
aqu
Eis
unreal
requesting
##leen
digest
Mia
Whitney
Large
##icits
naive
Nairobi
##found
##enches
Clare
Cubs
Noble
WS
Playboy
staunch
thrill
Fa
applauded
##ourke
DIS
Heights
##ophile
Oxfam
YEAR
contradict
methane
##Here
##adors
Paramount
salv
Rosenstein
Sao
RA
Pra
census
bicycle
reversal
temp
viewer
repeating
Duck
throne
void
##Paul
##MD
Hawks
Gaal
##ders
waist
plung
Kuleba
##MI
assure
praising
Shawn
submission
##pen
Jacques
Tina
##elia
aliens
Lud
##autiful
herald
##ogging
rumored
summoned
Gear
afterward
Ellison
popping
Tian
##iegel
chanted
##ospace
berth
##https
Hotsp
nephew
shapes
NZ
##Feed
Rab
liberation
##ayan
resorts
Pistorius
FIN
GA
backstop
Inquis
regimes
##rehend
Levy
##ivities
Consult
##ELS
persuaded
Gene
##cat
OECD
##oyds
NJ
##atical
slugg
demilitar
ANGELES
humili
towers
merchandise
Kub
Honey
indicator
Boss
spo
pigs
Enterprise
##oway
Telec
Salisbury
curator
Charleston
penis
Restaurant
BIG
litre
5bn
Gent
crippling
dont
phenomenal
##iful
##UMP
##vic
Kurds
burgl
retrosp
##aines
Vital
##88
Iraqis
##econom
##eas
Falcon
gratitude
Sed
rematch
##David
cardi
Finnish
compelled
acquiring
Blanc
inspir
Worldwide
hier
disruptive
sneak
FY
Yam
baff
PBS
framed
##ando
Fra
upt
petroleum
Gone
powerhouse
Dawson
Playing
oversees
Slovenia
##ushima
cant
governmental
cared
Raptors
PG
downside
Philippine
##III
sincer
incompet
MENAFN
x20
colony
##IRO
overshadowed
architectural
mentions
obese
Revolutionary
burial
Wins
screw
##ITE
exceptions
##yscrap
leisure
Dodgers
prevents
rod
criticisms
complement
Willis
##guardian
Mog
matt
##lywood
perv
Sit
drastically
Benz
Monroe
Typ
overr
assessing
Kumar
Goodman
uploaded
recycled
shores
signalled
##artet
Millions
##affer
summar
reliability
baked
Olaf
graves
dot
6th
Rourke
Cumber
Rouge
PEO
Strict
##ishi
Female
bullied
hats
plots
twisted
Capt
irregular
Phelps
dividends
##uh
Basketball
Harden
gestures
infectious
reliant
transcript
Kyi
Sense
##amination
brok
Huss
##mour
havoc
divest
contestants
##graduate
colored
outline
##entric
merits
juven
Northwestern
installment
##ardyce
Tusk
##avi
Mald
medallist
##oi
Lego
airs
metaphor
##iid
punishing
##orde
##risy
Borussia
Skin
pes
lowering
masterpiece
champagne
sunshine
##oum
conceived
rupee
turt
defiance
withhold
##aunted
Jens
Sheeran
##Guard
fundraiser
Byrne
GE
rented
Napoli
##iak
Nate
rethink
Rivera
##eong
##anova
##ovision
Elementary
##aque
PhD
Perkins
##ocese
glamorous
Craz
##aney
Koreans
Garner
pools
psychiatric
##oqu
Trading
crowned
Creative
generals
##worthy
analyzed
tents
preferences
Pract
##ISS
Frost
startling
Macedonia
polled
Hamburg
poems
covert
Yel
busiest
Suu
clay
fabulous
Falls
murdering
laser
northeastern
200m
netted
Arn
bore
##dr
cookies
Panel
Pierce
staple
##stad
onstage
Shades
smear
rejects
absorb
roller
ech
abducted
Schwarz
retwe
##odge
##hyd
##Mark
Johns
alternate
ruthless
Jacqu
drastic
Goals
Woodward
compensate
Hutch
aesthetic
nevertheless
offender
Liberation
Region
renewal
pour
internally
Christina
##enary
##uggets
##andowski
##seud
Norfolk
Ri
dossier
##iza
anticipate
##ifferent
portions
renegoti
Kw
##Pol
adher
cluster
famine
##edo
slept
Embiid
derail
obscure
NI
Adm
Cultural
Adding
##IONS
WA
ministerial
culinary
SL
##urally
##umps
sentiments
steer
##Despite
##neft
lunar
Parkinson
heroic
obstruction
##poena
baking
rant
cynical
Opin
##epsi
nationalism
indicators
unofficial
Especially
obstruct
dilemma
123
Anglo
anecd
Content
nerves
sensors
Meh
Blasio
vanished
##Image
##ouf
shameful
ecc
Style
ingredient
Wolff
elusive
painter
##osion
cheers
##Who
Renault
sham
##manship
Mancini
Autom
##actic
radioactive
rewritten
##acens
servic
Nets
darker
punt
##ilion
rigorous
ambig
dragging
Cities
Aboriginal
Xia
##Dr
KN
bent
##nock
precip
Kier
BlackBerry
bullish
unrelated
##Mc
dynamics
drawings
promptly
Videos
Dob
vacant
fertility
heck
skyr
Wyoming
spies
Ukraines
Analytica
segments
feas
trek
##nels
induced
Industries
##oder
trails
Question
##patrick
##ocracies
##moon
sands
##ahi
Judy
hormone
unin
outreach
##aris
##nite
pier
##gone
Yug
elimination
rust
Lans
187
225
Kindle
popped
McDerm
obstacle
ignorance
restoring
Ridley
Vinc
IBM
satisfying
fist
Anything
erupt
##From
Phar
Productions
acquisitions
manipulation
trajectory
edges
##ascript
Manz
##hma
NEWYou
owning
administered
8th
##case
##uzz
tightly
Broadcasting
##roads
Erin
Cortez
Claim
seafood
illustrated
##eanor
imperative
pac
##elaide
##lins
Indo
Clara
Friend
handgun
Calais
crystal
Alexandra
##Ms
##ansson
Speech
Allan
Punj
ain
##anie
handc
Kitchen
greenback
PEOPLE
##NER
##onga
profoundly
admired
Jennings
subpoena
skyrock
blows
allev
prag
refined
1961
Millennium
VP
Pull
gloss
Hul
50s
Hotspur
ABO
Earn
Romanian
assumptions
tossed
##XT
restricting
supremacist
glance
Articles
Allardyce
Fukushima
Chrome
stems
authored
Congressman
hardline
Sudanese
Catch
##teen
##smith
##orthy
raging
IA
avert
##getown
##PG
sting
franc
partnered
1948
Machine
airplane
punched
##rategy
##ommunications
cemetery
Anat
halls
Jonas
##tro
moist
coincidence
Soros
O2
guardian
Malta
inad
SNL
meta
##falls
##artime
##ArrowRight
rifles
Symphony
vind
stoppage
sacrific
Liberals
##IZ
chooses
##umbles
characterized
upgraded
aunt
criticize
allowance
strive
##hardt
Caucus
##ighting
reinforced
Xavier
Generation
balcon
Lloyds
maths
Cory
##ibles
Paula
advising
Lank
Ship
wreckage
appropriately
aug
prescribed
variant
thigh
Stark
workshop
biology
renewables
excellence
##32
##rugged
skating
abus
Pochettino
DW
mandates
ego
composition
##West
##apova
repression
tipping
favoured
coroner
Nonetheless
distinguished
128
ironic
##riad
rendition
##orie
Javascript
onsl
practicing
foresee
remotely
##ifics
clinch
Buddhist
boxer
obtaining
notoriously
Doha
Bair
disarm
skirt
Eva
Tasman
Crimean
cheapest
vocals
Pepsi
gallon
Molly
##IDE
Berks
Bj
Vanity
Rus
dominating
##irable
##ishment
tycoon
existential
firearm
container
pleasant
Hansen
Estate
educators
Success
toddler
quir
Eurovision
Solomon
Voters
Opt
frontier
Jod
ub
ETF
blatant
Cly
##NY
levy
whistleblower
statues
Goldberg
varying
##osaurs
##anta
assisting
Canter
unveil
desired
disadvant
##gyn
commenting
##AKE
rode
Cloud
antisemit
##itchens
AMC
slipping
Roose
##onzo
Transcript
Von
historians
Comics
barring
professors
turf
##flower
Forward
ANI
Download
##HD
hunters
##mill
Plant
tackled
abruptly
coloured
splash
Hein
circulating
Cotton
Hour
##Que
Nak
speculated
Saudis
##eters
combining
grandson
##iblical
Journalists
##pot
enl
bowler
jugg
indiscrimin
Pf
Keys
##berto
workshops
vastly
##assadors
indexes
Pax
##ATES
actresses
118
mortar
sperm
pipelines
dumping
Kyrie
granting
sandw
devil
rocky
##itan
reperc
pant
##Mon
##orns
rooft
Zurich
##Meanwhile
squeezed
Marks
shoots
eligibility
##emade
Higgins
Touch
dwarf
stall
opting
valley
##isphere
##reeks
pseud
exempl
onslaught
correction
clarified
Colonel
MM
confisc
Ned
Ronnie
Saracens
Safe
daring
wit
thankful
Professional
Kee
procure
Yugoslav
##ITED
Keeping
Kahn
impoverished
##onen
grabs
loot
##heart
classrooms
cracks
Bernardino
practition
shells
reserv
Always
##bons
##icron
##ulia
##uffs
contingent
gradual
mosques
##ausible
Refugees
##oward
homework
authenticity
Cunning
cartel
Rebels
improv
proposition
Pretty
Pard
##His
biased
unsure
consulted
Vod
homage
dess
BuzzFeed
##chuk
solitary
combines
##asure
Pyeong
mascul
Cann
Donnell
Fool
chased
bothered
spouse
propelled
##ascular
##burst
Ek
Cheryl
Kathy
specify
##enton
##oult
intoler
JUST
Gregg
Darling
McCoy
deficits
Recep
STAR
XI
farewell
##wave
medications
DAY
##QU
warrants
severity
enhancing
DeVos
daunting
Mickelson
coordinate
surpassed
##ovych
rightwing
##ALLY
Lukaku
orb
specifics
paperwork
Yu
Crimson
##ottage
Siber
unlock
CT
forwards
Gerard
implied
Piers
Jorge
locks
##imer
Lac
RIP
chess
##played
##lance
expires
Hawkins
##steen
Tracy
borrowers
humiliating
Marines
staring
##atorium
Probably
subsidy
weekday
Advertising
CNET
Schwart
Dil
wells
##ENCE
270
inmate
abstained
##abouts
##umblr
##itters
couns
scrambling
Ng
Buffett
##pc
morale
unsc
refin
Account
ineffective
dull
##evelop
obliged
backwards
hypocrisy
showers
boast
Amir
Goth
outdoors
iPhones
Electoral
Bucks
vigilant
expire
Gate
Cyn
Sinn
##fo
##Pal
Asset
fulfil
vel
operatives
Stephens
##luded
##ilyn
Chop
passer
##uers
childcare
stemming
inhabitants
meditation
standout
buildup
##oday
raided
##reb
##este
EVER
risked
Feinstein
Clive
cathedral
spiral
##orestation
##eryl
superst
spectators
embro
cleric
Pip
##kill
ubiqu
readily
emerges
##umbs
planting
Production
unequiv
akin
boge
Strictly
lashed
traits
Savile
wartime
imagin
Pars
jockey
Karzai
Horse
##olar
reasoning
Durb
weakest
##a€
spinning
##eke
Except
equaliser
dilig
doses
extrav
Written
extinct
unveiling
coins
##ava
potato
stricken
Maggie
jewelry
protagonist
spook
insects
probable
burd
motorists
migr
##hou
##atement
vaccinated
evolve
Single
Sty
McDonnell
altitude
Qat
##orously
Isab
Georgetown
Streep
Absolutely
##imity
sliding
Cups
unb
Northwest
deterrent
##layer
##Pr
Scand
originated
Graeme
Maps
echoes
laden
yacht
Otherwise
fractured
bishop
allocated
UKIP
alerted
##witz
rotation
##DC
##velt
assistants
Dynam
policeman
trousers
##ahill
Hicks
Rousse
##arry
##ipple
hospitality
lauded
niche
derived
playwright
Butter
tended
accessing
advocated
Crazy
uniqu
##ustralia
interpre
Adelaide
antid
Klitsch
sod
Mayfield
midday
widening
catalyst
Deborah
pitches
##46
##ifers
##unta
circus
Watkins
##ologue
Commander
Rif
envision
containers
cinematic
Burger
##breaks
bush
##eer
##ENTS
Tatum
landf
insistence
gays
backyard
unspec
forgive
##icio
Damian
pumping
stip
domest
Chandler
##36
##ubles
##oya
bowled
fiercely
##aternity
glitter
adequately
Sanctions
##adiq
Levin
tomb
Writer
Flickr
##aic
Houthi
bacon
lever
Ign
##vine
##anni
Zen
Alexa
clinched
packs
overhead
ladder
Inspector
Him
Warning
fatigue
Donna
Easy
Inquisitr
insults
Havana
MIN
banners
ruble
Graph
Johannesburg
Tag
forged
confronting
spaw
delete
misdem
##38
qualifications
Sharapova
Riot
##Cont
strapped
matur
Refer
DPR
PET
ER
##imps
breasts
COL
Austen
tributes
aided
##utory
Beir
Serie
Fortnite
##ayson
Earl
Santiago
##OOK
Reich
motives
southeastern
##Will
Beautiful
repercussions
##erally
Mist
heights
beta
boasted
Grammys
##atal
integrate
##GC
##afa
volcanic
resett
Fantastic
##57
##elsius
##ATH
##AAF
Banking
displaying
Sister
##oux
prominence
floated
INS
##roud
compatri
BACK
##bc
earthquakes
enrolled
carved
streamed
hiking
##37
shocks
Cunningham
GRE
ma
brilliantly
Norton
grind
expans
nutri
UBS
Dee
adjacent
expressions
accidental
crypto
gloves
diminished
##ESCO
stirring
landslide
dough
##jiang
learnt
Blind
Phone
visibility
Keny
##chy
billionaires
fres
underlined
offline
outdated
semifinals
sincere
TORONTO
##liga
Jedi
supervision
Jakarta
##EK
##DER
drowned
heter
panc
Khal
Cul
##irez
admiration
Tak
Blog
mentioning
Burma
Bali
Trou
brutally
asteroid
allege
##BUR
directive
Londoners
stamps
constraints
filib
Nikki
##urious
cage
##lymouth
wildfire
Barton
defamation
sunk
Underground
exemption
Witnesses
Arabian
##aca
hydrogen
tapping
selfies
2000s
Extra
ndash
abn
dubious
Matteo
unspecified
##eto
##lude
Num
##Pe
evasion
##ontane
MIT
Barber
JPMorgan
toppled
DS
##iliar
Coffee
Loc
##alified
Cars
NS
vest
##Just
youngster
mercy
cyclist
BER
Lines
##oglu
fairy
Klitschko
quitting
arbitrary
intric
##boarding
Musical
await
deploying
Away
balancing
Congrat
Strategy
Riv
arise
descended
##eve
provoke
prohibits
##OUND
##erations
massively
##VEL
witnessing
##htaking
expenditure
##Caprio
lively
breakout
Grad
macro
apt
##boro
YOUR
narc
overdue
##resses
saus
chambers
##ryn
ADVERTIS
disproportionately
Kun
madness
Hampton
concealed
Attack
float
tread
rendered
Canterbury
Hitch
Paper
automated
Rule
continental
praying
blames
borrowed
Garland
reconstruction
BAFTA
##rolling
NAFTA
##arag
malaria
fulfilling
crosses
Stocks
culpr
Agg
HB
sings
##oids
negatively
Ely
Jade
Threat
##imming
##hesis
loads
gamers
BUT
oct
##antis
Vision
abandoning
handy
pals
Begin
satur
Greenland
competit
Mets
##akens
signings
##prod
environmentalists
##ipras
vertical
Gust
##iratory
##rera
Spacey
drummer
pec
inspections
##Gov
##Ear
##fried
Morales
Juliet
Squad
Whole
Medal
underwear
financed
##aution
##monds
flavour
##ubborn
Nationals
multipl
colourful
##dings
queue
reluctance
##GS
Alec
Diplom
Luckily
Sina
Liv
##PH
##ksand
##haus
Igor
Mara
waved
Bring
judgement
spar
Herz
Fas
tiger
##Sports
skyscrap
Specific
##Cr
trolls
exodus
vou
##imi
Alicia
##Con
Gloucester
Lit
Poo
freak
scathing
£25
assignment
100th
ART
intersection
##obil
secretive
Equality
##Police
jumper
weighs
Newspapers
filter
comprised
Parade
##itez
Task
Fidel
Honor
rents
columns
Fernandez
pioneering
incurs
locate
frenzy
Ard
Portman
supremacy
expedition
artif
verb
creepy
pubs
behaviors
dyst
resid
Shore
Meta
Tik
##olis
blitz
fluct
##gestion
disappro
proximity
##quel
DiCaprio
Savage
Roosevelt
Gus
Felix
Hut
Sadiq
##sec
##rentices
##opian
##riet
resurrect
ravaged
Lex
##eliness
##aths
pitcher
Gandhi
##illard
hearted
provocation
Ibrahimovic
repairs
storyline
inventories
fertilizer
seizure
Downton
blo
blueprint
FIR
Kham
statutory
specially
logged
afflu
Select
Penguin
crisp
honesty
predecessors
peacekeeping
Kraft
planArrowRight
PDT
instruction
password
##pGet
doctrine
##etics
inherit
Kot
gently
##gs
deepening
##lair
##Reg
##ummer
pedestrians
##ulously
Ramirez
ecst
barbar
Georgian
Jamaican
admire
Skripal
WTO
excuses
##OLL
feroc
Heisman
Lampard
trainers
outnumber
RAF
quarterf
Tomas
Log
exacerbated
Monte
Showtime
fraudulent
reeling
sword
Purdue
exh
Grade
autopsy
Wilkinson
adorable
foolish
##alion
Marse
continuously
mastermind
tapes
##empt
inclined
raping
enthusiasts
Finding
Parkland
cough
clamp
##lantic
kissing
##rift
tangible
mish
##owan
Depression
Particip
unhealthy
##Another
motorcycle
Tsipras
Hulu
##34
COP
dispatched
£500
##ischer
##igl
armoured
journeys
spree
caret
Lap
##ublished
Appeal
2m
alarmed
##ONE
ISS
allerg
socio
Celsius
flats
##ego
##Why
Spa
legality
curf
QPR
bree
##My
dogged
Sarri
precaution
Duty
##berries
##EMENT
lawn
resting
lodged
simmer
Allison
blackmail
Bella
##peror
Convers
Aires
Maher
Dickens
Pos
capitalist
Roe
rover
Bea
Trend
##guided
Emin
mouse
##NE
210
underscored
119
tunnels
Bing
##felt
speculate
Shepherd
Nassar
##ellery
##VIL
##igated
cancers
franchises
bigotry
Visa
Yorkers
Tall
pel
sus
GPs
neglected
##Spe
##urous
Pharm
VAT
##annah
Hide
sufficiently
Perfect
##ramer
generic
restrictive
Suns
rang
##imat
loser
piled
Sho
Upper
##ebook
Consum
##rieving
Elliot
transforming
horrors
CEOs
##heck
deprec
Sof
WpGet
##idas
##ruit
businessmen
kindness
Training
Desert
129
Wheeler
asthma
mold
##gae
defines
packing
Buenos
1m
Tata
Mayer
155
JC
LME
tumult
Breakfast
Zinke
##uala
Robson
Armenian
servant
Aguero
Tut
testament
possessions
Considering
nicely
brig
Kaw
##imeter
cycles
breathtaking
Figures
placement
preserving
Sporting
##blem
messy
warpl
semin
Nicholson
Comcast
stubborn
Milton
Aussie
CAS
accomplishments
Arg
calf
##pi
Ez
villagers
forcibly
##inqu
excav
Benitez
Growing
conjunction
replay
collaborative
Tarant
spared
Evil
certification
bucket
moms
dwell
Samp
fost
fumble
semifinal
adolesc
##funding
mixing
Wrest
##ilitary
courageous
wounding
residency
Refugee
##elu
incap
ample
pledging
inconven
Went
lightweight
Oslo
exceptionally
Myst
Sax
##istrates
calculations
Infinity
Einstein
Sic
bees
30am
pleading
##iston
prank
intervened
maiden
terribly
Vernon
Naur
spanning
handles
Keane
Tebow
##FK
Herbert
mechanical
##proof
Hussain
Royce
Ladies
Cell
deteriorating
Edmund
Hunting
catalog
Kendrick
perfection
vin
pitching
Gatland
##rt
##Of
Plymouth
Tamil
spontane
narrat
Ware
depicts
sourced
##ymn
Files
linger
##opran
Dell
Sentinel
Ced
OVER
Italia
installations
##leigh
##ulz
##WS
Strat
yearly
TRA
constitutes
DU
##issy
145
morally
accessed
##chn
##England
##prints
rebounded
Initially
550
jealous
unfolded
lazy
Male
biting
Bundesliga
##olls
religions
Rosa
##store
accelerating
sluggish
Marriage
Marilyn
traffickers
Handout
Rout
Wash
ranges
handsome
transmitted
Guinness
cows
Reef
##ivable
traction
embroiled
Vanessa
Questions
disregard
##uber
notch
Flowers
curiosity
Dustin
Firef
spoilers
GS
IAAF
connectivity
Rosneft
Lewandowski
##quiao
Weiner
Mountains
prevail
Meadows
##dled
elbow
delaying
stressful
BJP
##legr
Balls
##core
hesit
Buc
brokered
barric
congl
outwe
unins
persona
Boat
detection
Lem
li
Acosta
relates
torch
omin
revision
Muk
##combe
outburst
23rd
honorary
##iem
Architect
sore
Hort
##undry
UNIC
environmentally
shallow
Relief
Cardi
DT
SUP
undefeated
##Related
Eh
contamination
mocking
audition
Walton
coffin
Northeast
##PC
##inton
lugg
vitamin
dismal
meme
compulsory
Mersey
seism
aspiring
grilled
defied
Repl
Simone
Lagos
Drama
Ling
vom
tomatoes
fatalities
organising
implies
Levi
Alphabet
Rover
predators
profitability
cherry
Hurricanes
##hev
skate
shortlisted
eccentric
Herman
Sevilla
Berkshire
Pizza
joking
Tray
fearful
Blackpool
selective
Barnier
Bot
og
provoking
Harbor
conflicting
illustration
##URE
##arations
##amel
addicted
##giene
donating
adamant
##77
##Em
tract
registering
betrayal
luggage
Kov
synthetic
vows
ATP
Uns
amnesty
undertake
Learn
contraception
Ospreys
satire
Cycling
dense
thes
260
selfish
##places
monopoly
Pinter
Maxwell
gamble
GCSE
Kro
##iann
finalist
SF
schedules
Hous
Deliver
weaponry
reint
Orwell
homemade
timed
enforcing
pumped
disagreement
retreated
Brain
Demand
##cribing
Cro
##aley
continuation
upgrading
##ienne
posture
coward
Thu
welcomes
##acas
##Many
Chilean
Punjab
Weiss
##leground
distracted
##sover
Sak
studded
Surviv
Ethan
Pradesh
Manufact
Rudy
surrendered
##reath
honoring
##amon
cooperating
TOP
UFO
##mitt
soda
outbreaks
unaff
Decl
3m
Virt
##Topics
##rays
extensively
Watts
mandated
impartial
rigged
Carmel
Suffolk
Innovation
concede
suspicions
ABOUT
Webber
850
referenced
maternal
Beirut
##London
smokers
Princeton
concession
rulings
participant
annoying
##ppy
HAS
Salmond
boundary
hooked
shortfall
rows
escorted
contributors
Danger
##orman
##quiry
##anas
weaknesses
Same
nostalgia
rattled
perceptions
newer
tunes
Johansson
Forget
##eco
##anga
strings
inadvert
hars
##pring
rounder
burger
uncommon
Emery
hotsp
##ILY
orchestrated
Giving
remarked
##ptic
myriad
machinery
obsess
##inian
richer
Aurora
Method
parish
perspectives
ancestors
Loch
##lot
kinderg
cocktails
narratives
upwards
##church
poisoned
microphone
##uchin
ensuing
Greeks
##zbek
rude
##essim
Carp
myths
humiliation
Kell
##anski
Pietersen
embold
ov
impunity
flame
redistributed
piracy
Calls
encouragement
Gins
sphere
accol
estr
bureaucr
masters
UNESCO
##orf
Chemical
Lon
Heaven
castle
Pacquiao
prevalent
skepticism
activated
Felipe
gotta
Pellegr
groom
grammar
HQ
##onut
slick
Soy
Tiff
Icon
attachment
Namib
objected
Horizon
debating
steering
McCann
nicknamed
##heit
Flores
##nick
##orp
##icultural
Standards
Gurley
Navalny
##arf
##auf
honours
mirrors
##pace
responders
##IJING
MGM
Mormon
Sinclair
Fail
faded
incorporate
##umping
refinery
sinister
Bod
##geries
qualifiers
Sana
penny
rect
teaser
devote
literacy
UNICEF
Saul
Pais
lads
probability
Bronx
counseling
##addock
proliferation
##SH
iPod
FAA
##batch
ard
phrases
Citizen
Fiona
Tue
280
incompl
##uding
##athlon
advises
archives
degr
autobiography
ginger
##itas
assail
sailors
mudd
brace
hopeless
prosecutions
plunging
##urprisingly
epit
earnest
Via
contributes
respiratory
Shirley
downloaded
cellphone
PRE
ox
repatri
insec
Saharan
Trinity
Resist
harrowing
Futures
##ypse
charismatic
Direction
inherent
Hockey
protestors
discoveries
declares
Dalton
Quad
##EG
##answ
awe
Fleming
Enrique
Nicarag
Randall
nationality
identifies
separating
Moment
downgraded
conserv
practiced
Augusta
Borders
Nom
Cald
Gibral
Fake
xen
undec
robbed
Journey
horrified
marches
Newsweek
rack
##enne
Barbie
Fest
RC
Siem
PARIS
##APP
essays
HOW
Prieb
STORIES
Uzbek
ridden
Canyon
AdvertisementStory
Chronicle
##47
##Res
Straw
Leadership
##ycl
Supporting
MI5
##icates
Marketing
Petra
FE
inspirational
lecturer
##thy
kickoff
Liberties
Pacers
Saunders
intentional
ovation
borne
rubles
Idol
forbidden
exaggerated
succumb
resolving
avoidance
basics
recognizes
Nicki
lengths
Eat
Manila
##rone
Reeves
tallest
soar
pasta
##imon
##enegger
exhibitions
Personal
Kidman
ft
disgraced
Push
fraught
connects
Kyoto
Calder
REC
Mater
##itations
Anders
plummeted
carc
caravan
ensures
##stru
peaked
dreamed
arrange
##UTH
swat
respectful
Cassidy
shadows
##uden
fog
likened
suppress
Reese
Dre
##erals
anthrop
unstable
onboard
centrist
iceberg
rewarding
Tarantino
tee
designation
pretending
Titanic
disproportionate
Taj
remed
Paralympics
Pena
##ACP
horrifying
##dan
wast
Crosby
wolf
conform
VIP
loop
Hate
##rolled
pedestrian
exert
Spokes
Lawmakers
spinner
##Gl
Pearce
##eut
Javier
Rutgers
graphics
Gol
implicated
Simply
Ernst
##Queen
##ikk
staffer
appalled
screenings
pall
##hee
warmth
emission
ambassadors
##00s
metric
##ICS
##usiness
##imo
jihadist
communicating
quoting
Fior
Presidents
##expl
gor
Edgar
congestion
##ibi
Bruins
contestant
inflammatory
##continental
Gina
Seng
##inav
beard
Meeting
outsider
Calling
spa
marvel
designing
therapist
rampage
breastfeeding
Nauru
Ernest
##gem
##LES
Shak
beast
guiding
Healthcare
##count
consultations
illustrate
BU
Playoff
progressed
DeM
couch
stairs
##ocating
manual
confess
##chester
hipp
spilled
Arabs
Users
##angled
additions
abide
patriot
civilization
Swe
##avis
Categ
Nova
Slater
IL
Ov
observer
##ifteen
individually
##ycles
Fix
##onial
fantas
yelling
speeding
shaky
Langu
Stacey
Inj
forgiveness
jar
cite
##ALS
##entin
##ushi
Wii
canvas
Kobe
##FP
##yna
Jed
##cation
winding
##herent
positioning
##friends
Sau
##FE
1947
resisting
algorithm
fishermen
##adic
Switch
Tinder
wiz
smoked
Persian
Muse
Pasc
Everest
wardrobe
Interestingly
Manziel
Pain
turbulent
Prague
hampered
##economic
Cel
brass
heartfelt
accordingly
Apprentice
Pry
Urs
Ricci
Foley
Ens
legalization
legends
patriotic
strokes
##ADE
championed
wasting
hurdle
Prescott
Khloe
Michele
retaining
gust
Commercial
##31
Houthis
dangerously
Boule
sabotage
##eh
Reve
Above
Mirren
AV
Fitch
exploiting
pains
sacking
Lund
Eugene
sunlight
pipes
##written
unman
hardship
Faw
##thia
##incts
lent
headache
Chechn
dunk
##42
Dud
RM
reps
Branson
quantities
jihadists
overcrow
##erget
pupil
wishing
##igroup
stumbled
Moses
Wen
Busch
Jaish
Cumberbatch
adverts
rusher
waged
##VT
unravel
commanding
##usable
Metal
invention
Hamm
Lid
undergone
escaping
1959
woo
##abl
Devin
allegiance
discounted
MARK
##ighted
scaled
closet
Clayton
coerc
groin
##anke
rift
shun
selections
Winner
prints
tainted
##rock
##ictionary
Ike
PTI
Hels
##ensual
Domestic
halting
##icter
icy
toast
Twilight
##hella
privatisation
libel
##emate
listings
burnt
Lies
yielded
pian
Individ
Gerry
122
Flood
Kathleen
##think
readings
harmed
Cull
Yas
spate
Glover
uncont
Chechnya
radically
organizer
soci
127
encirc
misled
##ardier
stricter
masked
frames
CG
Oracle
Gibbs
##lasses
##oji
##adays
conductor
Reality
selecting
##iently
vehement
Webster
##IRE
splitting
cull
jobless
organise
defences
CW
deadlock
Barker
hammered
smarter
dol
paran
misguided
commuters
armored
Jungle
EA
##elyn
Marseille
vinyl
##inist
theirs
curbs
jewellery
commemorate
fucking
##ocols
Brexite
##bourg
disturbed
Scarlett
policemen
unansw
ONS
bikini
Spears
Holding
whereabouts
Bates
##grown
variations
€1
##itled
steals
Operations
##AKING
Roeth
Hilary
Rent
##tw
##biz
beverage
discom
captiv
Incred
sunset
imbal
Howe
casualty
##lisberger
EB
Asda
Ozil
safeguards
Yanukovych
##mos
Harlem
Lemon
##ulator
forgot
##holic
##croft
objection
Goldsmith
curated
tightened
proclaim
capita
Awakens
Prosecutor
##urrence
McCabe
Charlton
embarked
Anglican
Brav
Greatest
Ocasio
Wizards
pessim
##oro
##chel
##VILLE
##eers
deforestation
gat
confession
apprentices
bloss
defends
headphones
democracies
jeopardy
paral
develops
empowerment
suscept
165
quirky
cooler
curs
Bran
##alford
22nd
Dmy
coastline
consultants
stressing
##lifting
liable
engineered
##adio
enjoyable
robotic
Rodney
Wesley
##aldi
Bets
havens
abundance
uphe
narrator
oversaw
##unc
Territ
illusion
freelance
Friedman
bribes
Haven
vault
##Since
##oting
intensify
##umental
genital
brewing
1958
Priebus
pairing
rumor
Gunn
cafes
seriousness
surfing
occupying
Gru
corrected
Etihad
##May
earns
idiot
Northam
Loading
Gibraltar
Elena
Stras
##ULL
##itational
prefers
refurb
Betty
Confl
##court
disbel
##eptive
Birds
Mavericks
Stev
entirety
rainbow
juvenile
proposes
manufacture
glaciers
##Other
peek
Damien
greed
Roethlisberger
acclaim
Proper
1953
Lakes
Elections
botched
fiancee
hectares
wre
##embrance
Bolivia
resurgence
##hole
swings
##China
Lak
recurring
choir
shuttle
Scandinav
barbec
wielding
critique
##ickenham
mineral
ump
collaborated
waking
useless
Philly
Picasso
telecoms
##ANK
backward
##orting
##ustomed
##INS
##wicks
Madd
desperation
owes
eup
##ingle
Agent
40s
Riverside
PO
Weap
Barca
revoked
quotas
puppet
zombie
##icular
frost
##baum
Rahman
HIS
faction
DHS
plead
Underwood
Booth
bestselling
Moor
Dunham
Romeo
eyebrows
Isaiah
Ecc
rats
hunter
premieres
##Like
diamonds
Griffiths
Mae
##kamp
Mini
Activists
racked
Marvin
screenwriter
##ventional
UConn
Wander
repet
downgrade
conditioning
##engers
##arceration
1920s
##ii
Basically
##Man
##icz
##ubscribe
interviewing
adjustments
diverted
Winning
rulers
glamour
shining
Monster
Crus
TDs
Learning
dinosaurs
Addressing
£16
distinguish
passwords
Citigroup
##amiliar
underperform
boil
poignant
Cind
OC
spiked
documentation
##leys
airstrike
Fiji
Scalia
freestyle
##ecoming
Bentley
mull
physicians
##sburg
ideals
translates
##Out
Twickenham
Dutton
##inement
persecut
wraps
wilderness
##ometer
cries
flatt
##chang
##elight
##innon
Bombardier
Ore
rays
##ongo
failings
Niet
##95
##starter
prow
researching
Originally
Um
entrenched
Lein
##esterol
##OSE
Mnuchin
traced
Muammar
Constitutional
gle
compact
immun
##lings
stadiums
Ruby
subscribe
##oors
Megyn
waiver
Mt
##lied
Railway
hateful
Construction
Husk
£200
innovations
##fur
infants
logistical
Jarvis
Hors
cheat
recap
footing
emphasised
##eneres
Dors
futur
Mathew
Poverty
surroundings
reminding
##Bar
##Off
##icker
drafting
ros
##chain
Poly
destiny
##hibition
GALL
oust
##org
##isans
Marion
statistical
Hamid
##assic
payday
disrupting
overlooking
Newark
##hari
Dunn
Puig
##stop
energet
smugglers
Gronkowski
Irvine
NAACP
authorised
misuse
Ailes
tattoos
##inges
upload
processor
Alist
spirited
Amazing
Dani
cess
lid
##ussen
Shaba
Separately
Kimber
Skype
##aghan
##angling
Alco
Davos
royalty
Experience
Welling
insurer
grains
disadvantaged
openness
quantity
commands
farther
bureaucracy
Hollow
Vine
departing
lions
##Over
jurisdict
##Google
varieties
Ellie
prose
##bern
favors
sciences
catalogue
##ulatory
Patriot
loudly
pundit
filings
camping
Goodell
broadcasts
Responding
Chapp
##uper
collectors
##roph
surgical
##Space
SY
forge
relaxing
Lun
attributes
coincide
##word
Rother
Defensive
##agogue
courthouse
Middlesex
narciss
Rookie
virgin
Alistair
Bake
Cahill
##geoning
##dington
STORY
guarded
Westwood
Lightning
Chanel
##eny
Leves
Scaram
Shepard
onset
belly
Rita
Chal
skinny
Bid
curfew
denuclear
analytics
misrep
Rousseff
##ovascular
Pelicans
BET
Cha
Tuc
##ogh
Bernstein
guru
Pictured
Nan
SUN
cad
vying
purse
overcame
Dmytro
LG
deer
##Sec
##ourcing
##atted
##ramid
telecommunications
ouster
snacks
ethnicity
councillor
##porting
dissatisf
bravery
casts
canon
uniquely
lag
scrim
Kol
##eneration
121
Worcestershire
FGM
##luding
luxurious
Specifically
Snoop
ubiquitous
undertaking
##NEY
##eneg
Eleven
withstand
seizing
reefs
Thankfully
setbacks
Letters
Consumers
##opia
patrons
##Speaking
vowing
##BBC
easiest
Gloria
overseen
uproar
##wickshire
exercising
Burgess
Runner
Hib
##hawks
##vantage
Moving
puck
crafts
collaborate
bast
Geoffrey
##writers
Livingstone
cameo
Scarlets
ferv
Visitors
##lamation
swinging
scrambled
pine
##Even
alliances
noble
GU
##RY
transitional
Meyers
Nunes
philosoph
minimize
##85
##uckland
##idity
refiner
dramas
biodiversity
Roseanne
vegetarian
attracts
##INGS
ANC
buttons
Shabaab
documentaries
Tens
betrayed
##OUGH
McKin
gala
Schum
chapters
segregation
garner
contag
strains
DB
haunting
hail
clerk
##alities
##ilater
sculptures
Carbon
replaces
Danielle
##Canada
Computer
projection
Heine
Basel
##content
##iq
satirical
Tip
Vance
murderer
battleground
##ubilee
supern
Monsanto
indirectly
unanswered
ERA
vibe
esteem
Porto
revered
PTS
discourage
Giant
wealthiest
reversing
Italians
Advisory
Heard
analysed
peripher
administrations
encrypted
demo
singular
##actory
morality
Hands
Adolf
Lugansk
claw
9pm
installing
##ANN
lifts
PRES
##riott
Das
Weir
knives
Javid
Rhode
Schwarzenegger
##ibal
Arlington
convened
absorbed
##olu
freight
quantum
##Although
##wayne
generates
terminated
Primary
##terror
Timberlake
Shr
Moto
owing
Lump
Adri
keynote
improves
backstage
Schwartz
idol
unfamiliar
unjustified
captive
320
4m
penc
##was
24th
alumn
capitals
Bengaluru
fug
##During
Archer
Macau
Eriks
breakup
reaffirmed
subdued
Killing
pean
##izh
##ihadi
nan
##Col
lays
imperson
surgeries
##hne
diets
Aziz
##dar
confinement
portable
Derrick
##INK
Hammers
reset
employing
strikers
Sask
Theory
worsened
dazzling
##Jet
126
oils
rebuke
##rosc
IAEA
foes
##alifax
##uish
##mus
worsh
flourish
##KYO
warplanes
NL
icons
accompany
Pont
Tumblr
bells
##outube
Mayo
##phoon
Plc
funn
amen
Daley
Opportun
denounce
Talent
##Pro
##onica
depths
##BLE
mighty
Opinion
redes
chim
flavors
Integ
angel
provisional
Fors
Hers
Carly
tempted
protracted
storey
Sudden
##idis
Known
Mauricio
Gwyn
Dimit
prohibition
bombshell
reimb
logging
lyn
Ingram
governed
Auckland
Feel
prostitutes
cholesterol
hurricanes
landscapes
maneuver
embod
transferring
caretaker
HK
grandd
staffing
bless
Cynthia
##zone
recapt
disciplined
Dais
apples
Respons
galaxy
controller
Leaf
McKenzie
tailored
dimension
gunshot
BRIT
Quant
mushrooms
McVay
Category
##afone
balcony
Isn
downloads
sliced
##renheit
Economist
##inged
Blade
polite
commence
Natasha
massac
Customers
demolition
Sumy
galvan
blasp
payche
visibly
##cient
begging
McCall
versatile
Brief
##emiconduct
hierarchy
filibuster
Pine
Writers
stern
##inki
podcasts
hangs
IQ
waging
124
Epic
Alexei
Mickey
stacked
helpless
Risk
goodwill
Cody
insens
congratulated
##ichi
incarceration
ruler
youthful
fascinated
instructor
##CLUS
Renaissance
unres
quarant
protocols
advertisements
ventures
affluent
##Online
Vardy
##iesta
scramble
##oving
Alberto
Trav
stimulate
estranged
Surv
##Guardian
Nou
##orum
classmates
replicate
Belgrade
bathrooms
Province
engulfed
##atus
##ilever
Guardians
Bav
##ounty
Britney
Maya
editions
HollywoodLifers
plausible
Dunk
Guang
swimmer
Ec
Artists
boycot
Alpha
Kingston
Sharks
eldest
shades
Michelin
wallet
##ativity
relevance
refresh
IX
advertised
Copied
Paterson
Berger
Bridg
levelled
kits
acoust
Leyen
Tiffany
##arcer
suicidal
Ready
400m
Tobacco
Sustainable
Meryl
Edu
upgrades
virtue
criticise
infringement
greens
Hert
Lauder
##bee
exported
tolerated
navigation
Bosnian
Honest
criticising
domestically
##ilaterally
overhe
teased
lawful
Halifax
Heidi
Monkey
Suzanne
Nem
##bro
##arest
##ayne
##endish
Nordic
##occup
Devil
##zhou
Stall
blister
Latinos
ranged
##ti
Fahrenheit
horns
muted
TVs
##CHQ
##anity
preservation
averages
Superior
stringent
binge
addicts
antagon
salute
Teresa
Chapel
Fol
UKRA
reacting
Pall
##alan
Shields
Lough
laureate
Mush
##Intern
tat
banana
warrior
extraordinarily
laptops
glow
unsustainable
rainfor
atmospheric
Nasa
benefiting
digits
lobbyists
##ewitness
##arde
Suicide
Usually
1940s
##FOR
braz
Shark
upsetting
lakes
concluding
Ramsay
lungs
kicker
##losure
thinkt
maturity
Gabb
toilets
hander
marred
passive
frontrunner
Laboratory
Lama
junta
pinch
lava
Julius
preceded
hawkish
Leveson
Mile
chalk
debunk
cleansing
Fit
Ridge
##ietal
promotions
Dion
Angus
explanations
##enei
Driver
Monk
claimants
erosion
unconventional
undermines
PLAY
##eous
heavier
alcoholic
Kamala
##media
capsule
##ORS
fundamentals
Pyeongchang
notices
considerations
conqu
LL
lasts
##birth
monumental
booster
Papua
Tomlinson
progression
nominate
remembering
Desmond
Terrorism
##ician
STR
styled
##enting
##neum
Cyp
comet
Warwickshire
Camera
Kherson
expulsion
Mashable
Radcliffe
parody
laundry
recounted
##thood
equation
gearing
##inous
intensifying
##stood
Beau
swipe
dinosaur
skeleton
tearing
Track
##ilda
Ajax
PST
Admir
Meteor
ml
##ulators
##undi
Joanna
Multiple
yelled
Minaj
delic
Ricardo
##ulence
kindly
Slate
Flake
Monteneg
quota
##enchant
##Ang
Rolls
##enheim
reapp
chants
##assies
undo
Sounds
multilateral
Plans
MoD
##bil
Flag
Quite
Scaramucci
##Us
ensh
knot
##fin
##odo
discharged
glowing
conceal
Valerie
plum
##anan
risking
NT
##egie
Khalid
appreci
BHP
Villanova
discomfort
Wo
schoolgirl
ignorant
socks
snake
Annan
Mao
bury
Wedding
Geographic
##oeuv
Raul
Bulg
##quisite
sceptical
disrespectful
Sang
Beer
arresting
incorporated
Franz
Demi
Rules
scans
submissions
Oculus
bunker
incomplete
##vernmental
Dum
Rough
supervisor
dismissing
Frontier
Yanukovich
prototype
GL
YouGov
##Earlier
accustomed
##lander
Triple
Census
##OG
plague
nearing
peacekeepers
Yar
forums
deval
Teams
presumed
traumat
##wen
Cot
outset
Shut
Farmers
Bryce
miscar
Doping
McDermott
Vodafone
lounge
peng
##arty
DeSantis
outsiders
Sikh
earners
McDaniel
emphasize
manipulated
manipulate
competitiveness
Bravo
offending
##ATT
Staples
Wasps
grin
gran
brighter
Mant
##isations
peaks
Angry
verse
000m
retains
rescind
indoors
BBC1
Lula
##istries
hazardous
Hast
Sands
fizz
hailing
##uthan
COUN
frightened
Language
RNC
Stella
Feed
checkpoint
Messenger
##PT
##ESTER
Ket
speedy
##stra
Bollywood
festivities
Townsend
Hath
##South
baseless
procurement
Rocket
parallels
##start
Maurice
DeGeneres
Maguire
Surely
topple
Hanson
##imental
stirred
DL
resemble
Ou
##herspoon
Carnegie
spawned
Til
##ilic
Nigerians
magnetic
onion
##istine
feminists
drunken
OSCE
lamented
137
platinum
roy
proceeded
Glamorgan
crust
arose
postal
unreason
approving
##fordshire
##ALE
##About
paved
consensual
cartoons
Daly
Managing
sandwiches
understandably
Quentin
Copa
Giles
##ulin
neon
breaching
Renew
plastics
burgeoning
conspir
defying
unple
##gencies
rollout
carnage
softer
squads
SWNS
tram
incarcer
snack
vigorously
##uschwitz
alleviate
glor
##zza
apiece
analyze
Tensions
##thed
Bolson
Galloway
Pors
cohes
Prophet
Helsinki
worsen
aval
financials
dissident
birdie
Ident
Draghi
gruesome
Inflation
Zambia
Khamenei
disclosures
McKay
bolstered
POTUS
hurry
illustrates
Lum
##zyn
##alom
ostens
Dot
##rage
multip
lique
compatible
tumble
Kad
collapsing
Ai
GCHQ
Chance
newcomers
##fest
stair
Silk
bind
Byron
empowered
vow
professionally
Fitzpatrick
Joa
communal
tasting
##arcus
enrollment
##ecard
flock
Enough
punches
G8
Witch
slain
efficiently
rested
patents
##YS
##emia
##isting
Planning
toured
dispens
Kickstarter
##arro
jurisdictions
Hog
Nicky
Alvarez
Coutinho
Sinai
empowering
##ourge
seaside
regained
Photographer
towering
Bullet
wool
##iesel
##hemian
Flying
##vable
Lyd
##arling
scal
statistic
Ironically
Heineken
Auschwitz
Worcester
Gruden
Sharma
procedural
beers
Richie
minerals
stewards
supremacists
Mered
vile
##WN
biot
Shanahan
Cindy
Pound
Paddy
Sisi
##ibo
1956
Done
Kuala
Osw
reins
deriv
observing
Canc
##ghans
##ooter
Coron
##laus
Strait
Gazette
£40
Harbaugh
Merseyside
DEL
correspondence
Bard
ted
Blazers
Hanc
gadgets
Dug
contingency
##bernatorial
defens
Princip
##pers
##66
rife
Pratt
Paw
pleasing
Henri
##lib
moratorium
Goodwin
orphan
disappearing
coincided
boutique
livelihoods
Dogs
##ensional
330
##xton
##arium
Shap
Premium
Hartley
AlertMe
grieving
##ammer
##oba
Greenfield
hygiene
Duffy
##asers
Excell
##oS
Lukashenko
termination
disadvantage
notification
depressing
fulfilled
Electronic
Toni
SPD
Paolo
Lankan
Gender
##anco
cardiovascular
##agically
collateral
Type
Wakefield
##eri
##izzard
Eyes
congratulate
CPI
cans
births
pervasive
interrupt
genres
negligence
ecosystems
Jude
##ysteria
depiction
tumultuous
spun
formats
lakh
implicit
Pell
Sons
Sisters
paras
violently
faint
utmost
conglom
systematically
pensioners
Chapter
scarce
axe
SAYS
Lights
Solid
Cay
Ranch
corp
Corb
##ophren
Toro
reunite
##arer
##KA
drums
LED
##irming
##ppe
Dreamers
##etus
Bashir
tires
Words
standpoint
##izophren
refr
##ukes
dissem
Bolsonaro
Malk
mes
Factory
poker
daytime
##IGN
Lumpur
##eworthy
seasoned
Correspond
Denise
Import
delegate
Coulson
GALLERY
##icides
redef
danced
lackl
##Talk
##uliar
##ractors
Moroccan
Faso
Zapor
interface
invites
##Gs
baggage
geography
Buckey
Guth
##rath
##rafted
texture
Ethics
Printable
unavailable
headaches
Engineering
Madele
Klan
##itrust
Suther
woe
thieves
notebook
discontent
bestseller
Hanks
payout
rescuers
roast
Afghans
Bout
##OSS
dictate
bogey
Mendes
##otle
unthink
desires
##INA
##ISA
Rosie
newcomer
adjustment
Karim
Ratings
PTSD
compassionate
sunglasses
dental
generosity
Levine
enrichment
##000
smog
Blo
populous
referencing
prevalence
rupees
cel
##idad
ner
Pellegrini
##ighton
boarded
Superintendent
outpouring
rationale
TT
lou
hid
##isy
heartbroken
Lena
pits
##Eur
internationals
Cats
##oΓ
ringing
Jaishankar
inadvertently
sob
Atomic
Guzman
fashionable
LV
Results
Statement
##iciaries
militar
enclave
Madeleine
Gould
Hotels
Toledo
conventions
ImagesThe
Cherry
Vinci
Egyptians
Movies
Ursula
Rein
evade
chees
coordinating
prud
monarchy
Mullen
nap
wax
##tra
##des
##idan
Tran
endanger
realizing
##oubles
##abies
treason
tomato
grievances
Grassley
Ack
Path
##59
alph
Whenever
specialty
replies
Fabio
Uncle
Rae
##edin
##ratory
##e¼
Marriott
finalized
Muir
Animals
##fied
##ountain
Marj
miscon
Wellington
Omicron
Might
Saj
SPL
##bread
##ste
reelection
Nex
desirable
Horror
Rodrigo
susceptible
Radiohead
gods
Rashid
caller
Pardew
scheduling
gigs
Giggs
##emaker
reinv
FARC
whipped
Believe
##terrorism
Mell
lith
ripe
visually
Impact
unrealistic
Legion
##amic
teasp
Religious
Hadid
##omas
##iker
recalling
nightmar
Charity
Otto
submarines
lingu
##alese
rhino
foe
Trin
##itorium
Hi
Jab
1939
Theo
looms
introduces
Victims
Ipswich
##zzy
enshr
Cain
stab
Sutherland
bir
##wild
##hetical
unpleasant
##esse
Stanton
expectancy
UNITED
punching
Opens
Bridges
resentment
cushion
Advoc
Employees
##ikkonen
Grove
Stormy
energetic
##cul
amazed
antics
EXCLUS
Tul
Zac
##akov
altercation
Spice
##rata
pinned
aiding
bord
shiny
Unilever
structured
##oΓe¼
nas
warships
cheerle
prosperous
Anita
competent
##ieva
converting
Burkina
settlers
crowdfunding
restriction
outfl
distributing
footballers
Boll
##oulder
Hammer
Derb
Acting
147
ignited
arbitration
##iba
Corker
Derry
Tristan
chuck
Rahe
fou
pageant
landlord
gentleman
Andreas
##abulary
Ritch
graduating
Parliamentary
Royals
turbines
Avery
Dary
##olve
carp
tarn
##OLD
collector
theguardian
##orned
Schiff
Brands
##atollah
Olsen
undercut
disparity
Qualcomm
whitew
unexpl
Contem
eagerly
saturated
Infant
inherently
Pixel
replica
McCorm
precarious
Hawaiian
Dwayne
bend
murderous
Zay
uncertainties
##anked
daylight
libert
bowlers
##stow
##etter
Laurie
portraying
Barnett
6m
##cially
Counter
chickens
Billion
Ris
Rebel
Aung
##pable
##fair
##idav
gubernatorial
unmanned
primetime
pumps
Voy
pneum
brightest
biblical
liar
Judd
Salford
##Sport
displacement
dismay
Surve
NYT
Caucas
brunt
##Star
JFK
Likewise
##ribe
thereafter
Arms
149
condemns
Rings
presenters
DIY
Thing
Delicious
unauthorized
Vi
##quins
compounded
afor
Cum
##arova
attain
Freud
##criptions
ecological
deteriorated
Harley
Tir
tac
envis
eclips
Adventures
ND
defy
£18
mammoth
erotic
Forty
Ingraham
##opal
defunct
millionaire
Carolyn
rejoin
Nuggets
nood
taxation
smashing
pear
Daddy
brushed
##echnology
Legacy
Document
Ducks
##jar
erected
28th
Clifford
Marquez
poets
telecom
##esame
Suisse
intox
Homs
Vil
##pta
automotive
accumulated
algorithms
relocated
##ocket
detrim
DOWN
homer
26th
Watching
##asey
measurements
PER
cram
embassies
smoothly
##fig
Chrys
Cycl
relocate
echoing
Bold
Naw
outlines
undergraduate
Marian
friction
SHE
Tibetan
rope
heel
kilogram
Hancock
CLE
##wal
outlining
descriptions
Carnival
paramed
Yong
##BM
unilaterally
invalid
setup
deterrence
detonated
jackets
Algerian
stalemate
8pm
Gaw
Lieber
Papers
souls
Lands
timber
##nutrition
##gars
bracket
##aja
telescope
Fortune
evaluated
Wear
managerial
Milk
guessing
untrue
conglomerate
Nish
unleash
##etical
Ancel
prevailing
£150
pregnancies
concerted
paramilitary
assurance
Drop
ACA
Rakh
Andres
senses
quantitative
Hogg
THERE
Highlights
unfounded
Tevez
Siri
coconut
councillors
Pill
Capello
taboo
roubles
ire
inexper
poaching
Roof
Darfur
Moments
impass
centred
paradise
sanitation
exporting
Traders
Guards
##people
Cage
revamp
examines
1949
Curiosity
wiret
Nicaragua
Matters
REP
Tanne
jails
detrimental
##tree
haired
evacuations
scripted
dude
##AX
##43
invasive
enlight
##cht
invoked
immort
sustaining
narrowed
egreg
affidav
swung
uncover
grappling
Killer
##NBA
compounds
beneficiaries
##fields
waits
##aguered
Toure
debuts
resembles
cyberattacks
artifacts
Nifty
##USSELS
soaked
amput
apparel
goers
grams
husbands
Ras
clam
playful
mammals
unthinkable
Citing
Points
##Her
strategically
discriminate
Hatch
hollow
Thur
Tang
U2
hyster
drowning
Mogg
Yi
croc
loneliness
Quality
thwarted
solicitor
Vaughan
nitrogen
til
##awr
solicit
Raikkonen
Zak
bracing
Hidden
ps
##wig
##igor
##bsp
1954
##Britain
Eritrea
Wide
##isly
Demonst
harmony
outpost
RUSSIA
SER
manoeuv
McQueen
weddings
Random
disbelief
privileges
unearthed
Sims
Spike
forgiven
Kep
##heet
climax
##yptic
quint
watering
1955
impaired
Leinster
gatherings
##Today
Cran
Hair
Minn
endorsing
Audi
Jurassic
Gloucestershire
addictive
##March
slopes
PF
RIA
##page
Dinner
Guthrie
euthan
Networks
belongings
density
pesticides
Admiral
pud
##isput
recess
##syched
cleaned
##endiary
martyr
##iably
Woj
reservoir
##eon
uncond
CPS
Shooting
132
Hayden
evaluating
##ilo
inciting
##Three
commercials
Employment
Branch
societal
##azar
importing
Malawi
Outstanding
demolished
peculiar
backbenc
Hep
Institution
substantive
Meredith
hust
sparkling
MI6
Lara
##Ukrain
underage
putt
Ud
##andra
Burnett
nursery
##eaguered
##fL
believers
Cowell
disposable
dissidents
Archives
Dreams
Bio
starvation
culturally
Handmaid
Banksy
Gators
##Americ
scrimmage
Hank
independents
##achella
garment
00002022
foreseeable
Dirty
##velope
erase
implants
Bhar
Dome
Miz
exting
victorious
simpler
Nir
pint
vehemently
misdemeanor
Qur
coh
134
Kre
MR
sar
##link
exemptions
Tannehill
rests
Ivy
nets
##Card
##yshire
harming
commercially
ingen
Dwight
stoked
trait
String
proportions
Pfizer
edit
showcased
##latan
bodily
tornado
dro
##isson
Directors
Faul
twists
mayoral
Turks
practitioners
##ahon
SHOW
Henrik
bulld
Laf
##SD
Cruc
Evidence
Parsons
##ileaks
Ancelotti
termed
Katz
Zaporizh
##agi
##ographers
Lonzo
scant
##loo
steak
rumoured
Jessie
bogus
eagle
Nieto
Sprint
captioned
Casino
ominous
##zan
##enburg
variation
curse
Trayvon
dishonest
Cave
strides
crossings
Solutions
Nino
pirates
Ala
brav
##ulse
##andum
OM
Luiz
ramifications
Boulevard
Suddenly
bystand
Whitt
##yssey
EDF
##metics
Sofia
intimidating
Ritchie
Yun
documenting
Montenegro
Elite
Walters
Seeing
schizophren
Fischer
Gad
##Life
Wanderers
##ju
##itating
Emerging
Frederick
##ongs
Chocolate
LaV
pent
Khaled
##acted
Canal
immens
upheaval
##atlantic
discredit
##df
Doncaster
OUR
##James
Crew
Suk
reopening
##otelli
Whis
silk
looting
Events
dismantle
rehearsal
##uilt
underp
vod
##ementioned
Shea
##Tok
##rica
##reddit
heatwave
showcasing
meaningless
rooftop
Bonn
##ocial
McE
Rajoy
Corporate
Tunisian
Bullock
Porsche
Rip
iter
lig
##bone
bandw
Jae
##ienced
Chat
brazen
##aye
ailing
KGB
1bn
Q1
wrapping
automaker
Nottinghamshire
##olese
##ittal
##ographics
disagreements
TASS
##bb
distressed
swearing
Saturn
reinstated
aforementioned
Chopra
##about
Homes
dislike
Laws
Browne
Soldier
Kand
##ropolis
ESTLast
tand
##ORY
##ELY
##ewood
##ostic
incendiary
bricks
situated
Romero
lyric
Meng
##umenthal
Dons
##End
suppression
4G
Naturally
hysteria
Wei
procession
pence
HMRC
Hare
gospel
goodness
eyeing
Springsteen
##ummings
Pig
remn
Doing
doorstep
fiber
particle
McGowan
##International
Arr
Sophia
indiscriminate
##iciencies
Expo
honeymoon
##ubbing
stack
deterioration
expansive
fade
deprivation
cessation
bere
Aless
Twelve
##aminer
Chamberlain
bou
##cts
##ebe
Historic
Fiction
resigning
Stranger
complicit
footed
exhibited
chatting
consolidation
sq
##boat
domination
Scientific
prostate
hates
coloss
Persie
##mani
Melanie
##committee
Daisy
servicemen
Ci
##ivision
smiled
Grind
coping
Osaka
cakes
Astron
##sch
##corn
speculative
authorization
horr
creations
midw
##umbria
##OULD
symptom
seismic
##rush
truths
Caldwell
philosophical
##osphere
fascination
grossing
##yche
antitrust
kindergarten
adhere
Newtown
Gillian
##udic
remedy
bookings
countered
trustees
Pole
##obar
intolerance
##entan
##etto
weighted
##enness
apologies
Kud
stain
runaway
parach
Merrill
interval
##wyn
inflict
Wife
proactive
tempting
fridge
Chil
Idlib
Nurs
Grizz
##pol
##iberal
Hebdo
##othel
PayPal
4x
Yulia
##acha
Joaquin
gripping
surrogate
##du
seating
##ibaba
Worst
BEL
Forec
##umbo
Response
Clos
##110
##rene
Anthem
impasse
mutually
liquor
Cron
##ansa
Property
##inch
##a€™
comprising
179
hormones
##imagin
Draw
##amar
Trey
heroine
continuity
Rubin
Hartford
FB
USDA
favourable
Archive
Wils
Larson
Reggie
pathway
Sahara
Opponents
##parable
External
##class
syrup
Lob
AFL
psychiatrist
##Photo
##kyB
caliber
Derbyshire
HOUS
lobbied
##mn
uphill
Prec
lush
cloth
gunned
Lorenzo
Yugoslavia
quartet
Asians
commissioners
intimidate
IVF
pads
Atkinson
cardiac
##IFF
Tap
optional
physi
cousins
##voy
##Media
sacrifices
pragmatic
Himal
Woz
##Michael
##eville
133
Powers
##Day
menstru
paradox
thinktank
144
Emm
controversies
retaliatory
bash
eg
Boas
£11
behavioral
fragments
axed
Mit
##wh
spine
Dalai
beleaguered
denouncing
deepen
ethic
bugs
Laun
##onian
Elis
##ASE
recognising
Buhari
Hence
slashing
exhibits
Sett
hast
Complex
Adidas
##Rec
feast
Saskat
##jee
Lehman
Kieran
BEST
Manny
fours
Blumenthal
Bachelorette
voyage
##riminal
##OV
Outlook
stresses
Odessa
vandalism
Traffic
Voting
heterosexual
1944
Pastor
Rotherham
2bn
anom
Schl
Alej
Protestant
Clarence
ransomware
gritty
viruses
corresponding
Rashford
##eping
envelope
177
underestimated
antiqu
abduction
Contemporary
alum
specialized
multicultural
Rust
##orr
Barrier
Keynes
interfering
bachelor
debacle
tv
##oultry
Pamela
Conflict
lord
raged
coma
allocation
##mins
##orer
Anast
1957
Jail
MAY
##onson
Limb
Sul
10pm
greatness
aerospace
AAA
Everett
NOAA
spearheaded
Economists
Sag
mural
Communities
Yaz
Dray
KR
Emil
Balotelli
sincerely
KY
##ritional
##made
##rals
##300
monsters
Cummings
paraly
drank
suitc
##weeney
Hitchcock
memes
Hastings
##vial
catering
Schumacher
RR
ticking
adrift
legalized
thermal
limbs
Rossi
##hearted
emoji
Coachella
matchups
##IFE
automakers
gallons
Copp
##Wed
horiz
dispatch
treasury
Rabbit
##Where
##abol
##rehensible
delightful
physicist
Lucky
Nim
unintended
mapping
Hewitt
Pir
Pepper
apocalyptic
cros
Lieutenant
receipts
shaming
Forever
chemotherapy
dessert
Ginsburg
Malone
feminine
reckons
Elyse
178
Vac
sorrow
spouses
agon
FedEx
Becker
renting
Tow
Zid
informing
checkpoints
reassuring
fusion
taped
doom
treaties
Sothe
Heading
Villas
divert
thirty
##verages
Overs
passages
Sot
Chart
##rieved
prominently
severed
salvage
Rakhine
disgraceful
##TB
scrapping
predator
Slides
##Arthur
Lester
eviction
pric
disgust
Tuls
outsc
27th
PMI
Disneyland
sickness
TSA
downhill
##anu
angr
##ibling
Warhol
1940
Dorsey
gateway
affirmed
gamep
mistakenly
cosmetic
slams
Blanche
Demp
combating
immensely
##ifference
##raine
remorse
##URT
BEIJING
Rig
Namibia
Oll
portrays
##enzi
Cannon
bak
roadside
fuelling
Hathaway
angrily
##These
##had
##jani
attendant
Blunt
ObamaCare
proceeding
CHAR
Adventure
paced
rim
Coke
Shot
141
paints
circular
##evo
fuss
observ
##THE
lobbyist
evolutionary
renamed
Negoti
Tym
139
Pett
fading
spelling
licences
Clinic
Chechen
sensor
Prep
BSkyB
abnormal
lifes
surfaces
Raq
Jarrett
Nah
tumbling
Chicken
Khalif
disdain
figuring
Leary
commute
refriger
Ski
Weber
Journalism
Veteran
undecided
quiz
supplements
Corner
UKRAINE
subl
Blank
136
liberated
dupl
##utz
Anch
redevelop
accusers
Synd
Doherty
Nationwide
cro
awaken
Silv
Furious
backpack
marker
vodka
##oots
Maxim
Architects
gem
avoc
##HI
Purple
168
dwindling
Resistance
7m
Shame
impacting
vulnerabilities
Bit
pont
Whilst
mediation
journalistic
measles
candles
Rhys
awaits
elevator
eternal
##People
metropolitan
Hock
triump
worthwhile
sleek
Migration
dared
Lynd
Hes
##Sw
Interfax
Croatian
##quirer
##entanyl
Araf
##ortex
Forrest
Mosk
munitions
bald
Zaporizhzh
##stown
unimagin
eradicate
Cavendish
LT
hijab
Bhut
Ost
Ride
WC
Carm
revital
marginalized
Shab
Caracas
5p
##ng
##ikov
Ennis
homophobia
portal
Fres
Rox
wrench
##gyz
Lifetime
pianist
Edelman
journals
ratified
tentative
Bac
beverages
Lots
inund
spew
Swind
Kelley
reintrod
Strasbourg
Marcos
shotgun
##ethrough
newsletters
Kish
mechanics
nutrients
Paragu
Azovstal
vib
glaring
Shelton
##Upon
Ner
gast
Claudio
Lodge
Greenwich
Garry
erased
dependency
##AMP
stalking
sidewalk
amusing
underestimate
£17
Fraz
Pag
Wan
shack
Alps
Starmer
##Print
underscores
##buds
perimeter
diminish
##██
Moh
Ayatollah
Newt
Anwar
evenly
Coral
rewrite
Resolution
Romo
synonymous
steadfast
Carpenter
publicist
limbo
lifeline
watchers
buoyed
DEC
##pur
highways
Elaine
derailed
Treasuries
##feit
Nichols
Zidane
Syed
refineries
Dover
##resented
##unctional
##enthal
pathetic
Wozni
Mine
parity
universally
Achie
##athed
##otine
outst
summed
##INT
Humanitarian
##rade
Stevie
Norris
incarcerated
Nile
guerrilla
playmaker
fences
contraction
trendy
misogyny
bounds
gaze
##riv
exceeding
insecure
Weapons
malnutrition
mercury
ostensibly
##lene
enlisted
Barron
render
marital
possessed
promoter
landfill
##TORONTO
genome
swear
##Advisor
Ricciardo
filters
8m
discarded
##ushes
congregation
scout
Contest
Fleetwood
Nun
Tara
downfall
777
geared
NOR
##hea
##ichel
alley
##has
Drum
INV
##undy
null
devised
certificates
SCH
##inished
##umi
Internal
##Ste
bung
flashes
uninsured
neighbourhoods
Nestle
gymnastics
Huskies
Conduct
SX
arming
headlined
Carlton
Congolese
##zynski
##raged
##urned
Ariel
Lima
labeling
syndicated
flipped
##osterone
faulty
##otsw
holed
widened
ish
Wealth
##eyer
Transform
BYU
##iw
microsc
dreadful
Vall
Bayer
Copper
philosopher
Gosling
Chung
specified
40th
WWII
0207
baseline
##awrinka
##69
Corden
Ya
##alone
##ersonic
Palt
£250
incursion
vain
##cz
##athe
Glenc
inflationary
Stephenson
noticeable
intensely
postpone
inland
dean
learns
darkest
bark
dizz
intimacy
unseen
Sotheby
WENN
weary
Dyson
Alternative
Crude
tucked
knit
improb
mysteries
##OUT
Slideshow
ignores
partnering
Cheshire
Gior
ranch
Muller
Kyrgyz
acoustic
##bra
Petr
##olsk
EXP
##demont
Wave
##oka
##Register
imply
##verness
needle
marketers
tanker
Songs
mathematics
Seymour
lithium
Lieberman
seeker
exploits
avalanche
cla
carers
dimensional
ultimat
Md
Vald
bites
29th
theatres
paving
dynasty
gag
Them
classification
Advanced
blistering
ashes
brilliance
lieutenant
Rabbi
##mentation
slamming
##mert
fibre
lurk
pollut
##rir
presided
Sundays
##birds
##film
rash
defensively
marrying
Thiel
trivial
Lesb
##Also
thesis
consolation
egregious
MK
pistol
##FW
rocking
Recomm
Fatah
Xinjiang
##arov
Vera
Bourdain
crumbling
sofa
signaling
histories
##Direct
canal
##roughts
##isham
##fielder
buyout
##cheon
Chrysler
Mats
##ooker
forecasting
Autumn
Gatwick
Spiegel
Perman
tandem
Pirate
monologue
##quette
Barrick
Drink
mantra
futuristic
##L5
twelve
Conrad
Ortiz
##asser
Mexicans
decidedly
progressives
helmets
##Air
arrogant
##sten
##icky
##British
##wolves
possessing
Laure
bureaucrat
hubs
Associates
Kellyanne
lectures
Dhaka
Hebrew
##agos
fueling
balances
ramped
intricate
horrendous
mankind
senseless
Shelley
Southeastern
Leaving
Newsnight
Volvo
feasible
FIRST
conceding
Bian
Dew
triggers
Rak
vampire
##rational
##hots
cheated
Nickel
Whitaker
adolescent
inception
##elcome
uneasy
Colton
##restrial
Aq
Cobb
Pharmaceutical
Bild
herb
Paisley
hobby
Mau
##otte
Concert
unsettling
##umen
unborn
playbook
amidst
verification
patrols
Gymn
Lup
explode
Munster
##info
##illusion
regulating
Moff
Wings
piss
Rever
##anguard
##atham
215
bumper
Uzbekistan
Nab
knowingly
fared
distances
##ijk
clarification
Arafat
HIGH
##ELD
bedrooms
conspiring
perpetrated
Puigdemont
Coin
##irting
##ocrats
affili
EDTLast
Progressive
quipped
autop
rotating
midterms
HTM
##enaries
##Bank
Johnstone
intimidated
Shinzo
Gillard
Poet
recognises
CSI
diversify
Wawrinka
##riy
attach
Declaration
treasures
hesitate
Strike
AOL
##gang
handsh
Dior
lump
Olympian
butcher
£14
correlation
Kamp
malf
Sturr
USB
inflated
comedians
##atism
Spieth
Gea
Connell
sigh
respectable
relieve
reshuffle
Congratulations
##opath
##akable
edible
initiate
Cod
boasting
##ipel
##oppable
Moreno
Governments
offspring
puppy
literal
retention
Slow
Illustrated
##HE
prized
captivity
1952
cryptocurrencies
Fuel
##osters
##pora
Expand
Caitlyn
expands
scaling
sniff
Protests
Grayling
Q4
##FS
stride
Marty
Candid
thro
##gettable
mistreat
cardboard
Bono
BSE
Ding
fend
regroup
Monter
1936
deliberations
Gap
##cam
##eties
##integ
supervis
Mits
beet
restrained
340
TRUMP
conquer
##oku
Tier
incarn
stripping
respecting
Complete
democratically
transp
Farr
##quers
##affeine
intu
hydro
FEM
bouncing
##eking
Sv
jab
Bras
consisting
787
feathers
crater
131
patriarch
booed
cinemat
sprink
Dahl
##oops
pointless
landfall
medalist
Table
kidnapp
ribs
Carmelo
whereby
Allah
terminate
Morrisons
ordinance
Lub
nails
progressing
Cer
expel
##urrent
Cathy
casinos
Pixar
Hadi
spice
marketed
distrust
contracting
thanking
Bam
exited
veil
Dorset
floral
factual
##GP
##anol
whirl
Becky
assumes
Piper
##onta
slots
AfD
Okay
annoyed
pity
inaction
Neur
prohibiting
Zah
##n1
layup
copied
bisc
proponents
deflected
##Feb
inel
##isively
Robot
##stones
awake
Martian
hacks
ranc
##breaker
ludic
##ifa
grenades
##ummy
Elle
a€œ
Pandora
sibling
inhib
Heroes
curbing
prosecuting
onions
Bacon
esque
Starr
Bernanke
altering
slides
Lohan
corpses
Bachmann
KFC
bln
##liness
Downey
Mariota
##Sen
##words
Answ
##oppolo
Martial
138
rabbit
##cci
Clown
melted
Paso
brow
militarily
Angelo
affidavit
Anto
Mining
##vili
Anad
##ANE
reflective
tasty
##ricted
rigid
Pulse
Keller
##acki
##atte
##Bride
withheld
Missing
Maurit
##etch
vein
Poe
cav
Scal
suicides
##Time
##zhen
##maine
##comings
forbid
ls
Wikileaks
Bett
Hust
##uve
fung
##usa
##uscript
Tropical
asserting
Midnight
unfav
##anor
insect
nonf
tempo
##iatus
Henson
##ultan
Bahamas
1941
comRegister
decriminal
Benef
Teddy
Enjoy
injected
##burton
##FR
avid
dreaming
Surface
directs
Coc
strips
Highland
McMahon
Straight
uptick
psyched
##iad
moreIn
collaborating
brawl
rave
totals
Roz
Concerns
##itus
8212
afforded
Alongside
eats
Bret
Anaheim
Ace
##yth
abiding
redemption
Pinoc
unreasonable
Carmen
loosely
ludicrous
##fred
##Don
postwar
barbaric
Pascal
3bn
slur
massage
Anyway
##monton
ensl
Mackay
Loss
lured
##HAM
##rex
mindful
Rockies
rupt
Founder
Politicians
irrevers
MEPs
disob
beforehand
patches
##sequently
archbishop
extravag
Pensions
##Manc
frantic
automation
Eminem
Kang
chop
##ubst
##heading
WORLD
granddaughter
##oΓe¼Γ
blasting
fabricated
topless
thumbs
monet
affl
Flacco
##olin
discredited
snapping
Frankie
VIEW
##adena
Unity
assertions
##ogenic
harbour
boiling
Christchurch
challengers
Keir
pilgrim
barbecue
Gossip
glee
bee
careg
polluted
70th
Jenna
Brewer
Jodie
Pipeline
Gem
demean
marque
Equal
##Week
##oshi
overcoming
##ceptic
Edg
waived
characteristic
##ihiv
blankets
Kathryn
lia
pert
Beasts
bitterly
Zlatan
##rs
segreg
##psons
Sunshine
Eurozone
veiled
frustrations
Raheem
##ewski
Creed
peac
Readers
Scha
Adviser
ounces
##NI
##rium
soot
collaborator
depleted
##eutic
##xuals
thirst
contends
##aji
Giov
abundant
petty
transporting
polluting
Nikol
Info
Icelandic
TripAdvisor
antisemitism
##adian
Bax
Lizz
teaming
Kuz
paused
##Europe
Paltrow
lament
##eday
##laimer
sightings
calculate
Hillsborough
Morton
##sson
##isen
counterterrorism
nuanced
Literature
graz
AFTER
##flies
graft
southwestern
zinc
Alejandro
VC
continents
shortcomings
badge
Garoppolo
[...]
